const unsigned char tf_model[] = {
  0x1C, 0x00, 0x00, 0x00, 0x54, 0x46, 0x4C, 0x33, 0x00, 0x00,
  0x12, 0x00, 0x1C, 0x00, 0x04, 0x00, 0x08, 0x00, 0x0C, 0x00,
  0x10, 0x00, 0x14, 0x00, 0x00, 0x00, 0x18, 0x00, 0x12, 0x00,
  0x00, 0x00, 0x03, 0x00, 0x00, 0x00, 0x14, 0x00, 0x00, 0x00,
  0x28, 0x00, 0x00, 0x00, 0xDC, 0x00, 0x00, 0x00, 0x28, 0x00,
  0x00, 0x00, 0x84, 0x00, 0x00, 0x00, 0x05, 0x00, 0x00, 0x00,
  0x68, 0x07, 0x00, 0x00, 0xD0, 0x05, 0x00, 0x00, 0xE0, 0x02,
  0x00, 0x00, 0x4C, 0x02, 0x00, 0x00, 0xC4, 0x01, 0x00, 0x00,
  0x01, 0x00, 0x00, 0x00, 0xD8, 0x00, 0x00, 0x00, 0x17, 0x00,
  0x00, 0x00, 0x88, 0x4C, 0x00, 0x00, 0x84, 0x4C, 0x00, 0x00,
  0x74, 0x4B, 0x00, 0x00, 0xFC, 0x4A, 0x00, 0x00, 0xAC, 0x22,
  0x00, 0x00, 0x54, 0x22, 0x00, 0x00, 0xB0, 0x21, 0x00, 0x00,
  0x50, 0x21, 0x00, 0x00, 0xD4, 0x1F, 0x00, 0x00, 0x64, 0x1F,
  0x00, 0x00, 0x88, 0x1A, 0x00, 0x00, 0xF8, 0x19, 0x00, 0x00,
  0x9C, 0x07, 0x00, 0x00, 0x54, 0x4C, 0x00, 0x00, 0x50, 0x4C,
  0x00, 0x00, 0x4C, 0x4C, 0x00, 0x00, 0x48, 0x4C, 0x00, 0x00,
  0x44, 0x4C, 0x00, 0x00, 0x40, 0x4C, 0x00, 0x00, 0x3C, 0x4C,
  0x00, 0x00, 0x38, 0x4C, 0x00, 0x00, 0x34, 0x4C, 0x00, 0x00,
  0x38, 0x00, 0x00, 0x00, 0x01, 0x00, 0x00, 0x00, 0x0C, 0x00,
  0x00, 0x00, 0x08, 0x00, 0x0C, 0x00, 0x04, 0x00, 0x08, 0x00,
  0x08, 0x00, 0x00, 0x00, 0x08, 0x00, 0x00, 0x00, 0x16, 0x00,
  0x00, 0x00, 0x13, 0x00, 0x00, 0x00, 0x6D, 0x69, 0x6E, 0x5F,
  0x72, 0x75, 0x6E, 0x74, 0x69, 0x6D, 0x65, 0x5F, 0x76, 0x65,
  0x72, 0x73, 0x69, 0x6F, 0x6E, 0x00, 0x1A, 0xB5, 0xFF, 0xFF,
  0x04, 0x00, 0x00, 0x00, 0x10, 0x00, 0x00, 0x00, 0x31, 0x2E,
  0x35, 0x2E, 0x30, 0x00, 0x00, 0x00, 0x00, 0x00, 0x00, 0x00,
  0x00, 0x00, 0x00, 0x00, 0x0F, 0x00, 0x00, 0x00, 0x4D, 0x4C,
  0x49, 0x52, 0x20, 0x43, 0x6F, 0x6E, 0x76, 0x65, 0x72, 0x74,
  0x65, 0x64, 0x2E, 0x00, 0x00, 0x00, 0x0E, 0x00, 0x18, 0x00,
  0x04, 0x00, 0x08, 0x00, 0x0C, 0x00, 0x10, 0x00, 0x14, 0x00,
  0x0E, 0x00, 0x00, 0x00, 0x14, 0x00, 0x00, 0x00, 0x68, 0x00,
  0x00, 0x00, 0x6C, 0x00, 0x00, 0x00, 0x70, 0x00, 0x00, 0x00,
  0x94, 0x00, 0x00, 0x00, 0x15, 0x00, 0x00, 0x00, 0x40, 0x4B,
  0x00, 0x00, 0xD0, 0x4A, 0x00, 0x00, 0x38, 0x4A, 0x00, 0x00,
  0xD0, 0x49, 0x00, 0x00, 0x80, 0x21, 0x00, 0x00, 0x1C, 0x21,
  0x00, 0x00, 0x84, 0x20, 0x00, 0x00, 0x18, 0x20, 0x00, 0x00,
  0xA8, 0x1E, 0x00, 0x00, 0x2C, 0x1E, 0x00, 0x00, 0x5C, 0x19,
  0x00, 0x00, 0xC0, 0x18, 0x00, 0x00, 0x38, 0x06, 0x00, 0x00,
  0x48, 0x05, 0x00, 0x00, 0x9C, 0x04, 0x00, 0x00, 0xB0, 0x03,
  0x00, 0x00, 0xF4, 0x02, 0x00, 0x00, 0x48, 0x02, 0x00, 0x00,
  0xA0, 0x01, 0x00, 0x00, 0x0C, 0x01, 0x00, 0x00, 0x84, 0x00,
  0x00, 0x00, 0x01, 0x00, 0x00, 0x00, 0x00, 0x00, 0x00, 0x00,
  0x01, 0x00, 0x00, 0x00, 0x14, 0x00, 0x00, 0x00, 0x09, 0x00,
  0x00, 0x00, 0xA0, 0x05, 0x00, 0x00, 0xD4, 0x04, 0x00, 0x00,
  0x08, 0x04, 0x00, 0x00, 0x3C, 0x03, 0x00, 0x00, 0x80, 0x02,
  0x00, 0x00, 0xD0, 0x01, 0x00, 0x00, 0x38, 0x01, 0x00, 0x00,
  0x94, 0x00, 0x00, 0x00, 0x10, 0x00, 0x00, 0x00, 0x04, 0x00,
  0x00, 0x00, 0x6D, 0x61, 0x69, 0x6E, 0x00, 0x00, 0x00, 0x00,
  0x5A, 0xFE, 0xFF, 0xFF, 0x00, 0x00, 0x00, 0x09, 0x04, 0x00,
  0x00, 0x00, 0x1C, 0x00, 0x00, 0x00, 0x10, 0x00, 0x00, 0x00,
  0x04, 0x00, 0x00, 0x00, 0x26, 0xB6, 0xFF, 0xFF, 0x00, 0x00,
  0x80, 0x3F, 0x01, 0x00, 0x00, 0x00, 0x14, 0x00, 0x00, 0x00,
  0x01, 0x00, 0x00, 0x00, 0x13, 0x00, 0x00, 0x00, 0x76, 0xFA,
  0xFF, 0xFF, 0x00, 0x00, 0x00, 0x19, 0x01, 0x00, 0x00, 0x00,
  0xA8, 0xB5, 0xFF, 0xFF, 0x14, 0x00, 0x00, 0x00, 0x15, 0x00,
  0x00, 0x00, 0x18, 0x00, 0x00, 0x00, 0x30, 0x00, 0x00, 0x00,
  0x20, 0x00, 0x00, 0x00, 0x02, 0x00, 0x00, 0x00, 0x01, 0x00,
  0x00, 0x00, 0x0A, 0x00, 0x00, 0x00, 0x08, 0x00, 0x00, 0x00,
  0x49, 0x64, 0x65, 0x6E, 0x74, 0x69, 0x74, 0x79, 0x00, 0x00,
  0x00, 0x00, 0x02, 0x00, 0x00, 0x00, 0xFF, 0xFF, 0xFF, 0xFF,
  0x0A, 0x00, 0x00, 0x00, 0x7C, 0xB5, 0xFF, 0xFF, 0xDA, 0xFE,
  0xFF, 0xFF, 0x00, 0x00, 0x00, 0x08, 0x03, 0x00, 0x00, 0x00,
  0x18, 0x00, 0x00, 0x00, 0x0C, 0x00, 0x00, 0x00, 0x04, 0x00,
  0x00, 0x00, 0x98, 0xB5, 0xFF, 0xFF, 0x01, 0x00, 0x00, 0x00,
  0x13, 0x00, 0x00, 0x00, 0x03, 0x00, 0x00, 0x00, 0x12, 0x00,
  0x00, 0x00, 0x03, 0x00, 0x00, 0x00, 0x01, 0x00, 0x00, 0x00,
  0xFA, 0xFA, 0xFF, 0xFF, 0x00, 0x00, 0x00, 0x09, 0x01, 0x00,
  0x00, 0x00, 0x2C, 0xB6, 0xFF, 0xFF, 0x14, 0x00, 0x00, 0x00,
  0x14, 0x00, 0x00, 0x00, 0x18, 0x00, 0x00, 0x00, 0x40, 0x00,
  0x00, 0x00, 0x30, 0x00, 0x00, 0x00, 0x02, 0x00, 0x00, 0x00,
  0x01, 0x00, 0x00, 0x00, 0x0A, 0x00, 0x00, 0x00, 0x18, 0x00,
  0x00, 0x00, 0x73, 0x65, 0x71, 0x75, 0x65, 0x6E, 0x74, 0x69,
  0x61, 0x6C, 0x2F, 0x64, 0x65, 0x6E, 0x73, 0x65, 0x2F, 0x42,
  0x69, 0x61, 0x73, 0x41, 0x64, 0x64, 0x00, 0x00, 0x00, 0x00,
  0x02, 0x00, 0x00, 0x00, 0xFF, 0xFF, 0xFF, 0xFF, 0x0A, 0x00,
  0x00, 0x00, 0x28, 0xB7, 0xFF, 0xFF, 0x00, 0x00, 0x0A, 0x00,
  0x10, 0x00, 0x04, 0x00, 0x08, 0x00, 0x0C, 0x00, 0x0A, 0x00,
  0x00, 0x00, 0x02, 0x00, 0x00, 0x00, 0x10, 0x00, 0x00, 0x00,
  0x04, 0x00, 0x00, 0x00, 0x01, 0x00, 0x00, 0x00, 0x12, 0x00,
  0x00, 0x00, 0x02, 0x00, 0x00, 0x00, 0x11, 0x00, 0x00, 0x00,
  0x02, 0x00, 0x00, 0x00, 0x8A, 0xFB, 0xFF, 0xFF, 0x00, 0x00,
  0x00, 0x16, 0x01, 0x00, 0x00, 0x00, 0xBC, 0xB6, 0xFF, 0xFF,
  0x14, 0x00, 0x00, 0x00, 0x13, 0x00, 0x00, 0x00, 0x18, 0x00,
  0x00, 0x00, 0x40, 0x00, 0x00, 0x00, 0x30, 0x00, 0x00, 0x00,
  0x02, 0x00, 0x00, 0x00, 0x01, 0x00, 0x00, 0x00, 0x00, 0x01,
  0x00, 0x00, 0x1A, 0x00, 0x00, 0x00, 0x73, 0x65, 0x71, 0x75,
  0x65, 0x6E, 0x74, 0x69, 0x61, 0x6C, 0x2F, 0x66, 0x6C, 0x61,
  0x74, 0x74, 0x65, 0x6E, 0x2F, 0x52, 0x65, 0x73, 0x68, 0x61,
  0x70, 0x65, 0x00, 0x00, 0x02, 0x00, 0x00, 0x00, 0xFF, 0xFF,
  0xFF, 0xFF, 0x00, 0x01, 0x00, 0x00, 0xB8, 0xB7, 0xFF, 0xFF,
  0x00, 0x00, 0x0E, 0x00, 0x18, 0x00, 0x08, 0x00, 0x0C, 0x00,
  0x10, 0x00, 0x07, 0x00, 0x14, 0x00, 0x0E, 0x00, 0x00, 0x00,
  0x00, 0x00, 0x00, 0x05, 0x01, 0x00, 0x00, 0x00, 0x2C, 0x00,
  0x00, 0x00, 0x20, 0x00, 0x00, 0x00, 0x04, 0x00, 0x00, 0x00,
  0xD2, 0xFD, 0xFF, 0xFF, 0x02, 0x00, 0x00, 0x00, 0x02, 0x00,
  0x00, 0x00, 0x02, 0x00, 0x00, 0x00, 0x02, 0x00, 0x00, 0x00,
  0x00, 0x00, 0x00, 0x01, 0x01, 0x00, 0x00, 0x00, 0x11, 0x00,
  0x00, 0x00, 0x01, 0x00, 0x00, 0x00, 0x10, 0x00, 0x00, 0x00,
  0x60, 0xB7, 0xFF, 0xFF, 0x14, 0x00, 0x00, 0x00, 0x12, 0x00,
  0x00, 0x00, 0x20, 0x00, 0x00, 0x00, 0x58, 0x00, 0x00, 0x00,
  0x40, 0x00, 0x00, 0x00, 0x04, 0x00, 0x00, 0x00, 0x01, 0x00,
  0x00, 0x00, 0x04, 0x00, 0x00, 0x00, 0x04, 0x00, 0x00, 0x00,
  0x10, 0x00, 0x00, 0x00, 0x22, 0x00, 0x00, 0x00, 0x73, 0x65,
  0x71, 0x75, 0x65, 0x6E, 0x74, 0x69, 0x61, 0x6C, 0x2F, 0x6D,
  0x61, 0x78, 0x5F, 0x70, 0x6F, 0x6F, 0x6C, 0x69, 0x6E, 0x67,
  0x32, 0x64, 0x5F, 0x31, 0x2F, 0x4D, 0x61, 0x78, 0x50, 0x6F,
  0x6F, 0x6C, 0x00, 0x00, 0x04, 0x00, 0x00, 0x00, 0xFF, 0xFF,
  0xFF, 0xFF, 0x04, 0x00, 0x00, 0x00, 0x04, 0x00, 0x00, 0x00,
  0x10, 0x00, 0x00, 0x00, 0x5C, 0xB7, 0xFF, 0xFF, 0xFE, 0xFC,
  0xFF, 0xFF, 0x00, 0x00, 0x00, 0x01, 0x24, 0x00, 0x00, 0x00,
  0x18, 0x00, 0x00, 0x00, 0x04, 0x00, 0x00, 0x00, 0xF0, 0xFC,
  0xFF, 0xFF, 0x01, 0x00, 0x00, 0x00, 0x01, 0x00, 0x00, 0x00,
  0x00, 0x00, 0x01, 0x01, 0x01, 0x00, 0x00, 0x00, 0x10, 0x00,
  0x00, 0x00, 0x03, 0x00, 0x00, 0x00, 0x0F, 0x00, 0x00, 0x00,
  0x0B, 0x00, 0x00, 0x00, 0x0A, 0x00, 0x00, 0x00, 0x08, 0xB8,
  0xFF, 0xFF, 0x14, 0x00, 0x00, 0x00, 0x11, 0x00, 0x00, 0x00,
  0x20, 0x00, 0x00, 0x00, 0x68, 0x00, 0x00, 0x00, 0x50, 0x00,
  0x00, 0x00, 0x04, 0x00, 0x00, 0x00, 0x01, 0x00, 0x00, 0x00,
  0x08, 0x00, 0x00, 0x00, 0x08, 0x00, 0x00, 0x00, 0x10, 0x00,
  0x00, 0x00, 0x32, 0x00, 0x00, 0x00, 0x73, 0x65, 0x71, 0x75,
  0x65, 0x6E, 0x74, 0x69, 0x61, 0x6C, 0x2F, 0x72, 0x65, 0x5F,
  0x6C, 0x75, 0x5F, 0x33, 0x2F, 0x52, 0x65, 0x6C, 0x75, 0x3B,
  0x73, 0x65, 0x71, 0x75, 0x65, 0x6E, 0x74, 0x69, 0x61, 0x6C,
  0x2F, 0x63, 0x6F, 0x6E, 0x76, 0x32, 0x64, 0x5F, 0x33, 0x2F,
  0x43, 0x6F, 0x6E, 0x76, 0x32, 0x44, 0x00, 0x00, 0x04, 0x00,
  0x00, 0x00, 0xFF, 0xFF, 0xFF, 0xFF, 0x08, 0x00, 0x00, 0x00,
  0x08, 0x00, 0x00, 0x00, 0x10, 0x00, 0x00, 0x00, 0x14, 0xB8,
  0xFF, 0xFF, 0xB6, 0xFD, 0xFF, 0xFF, 0x00, 0x00, 0x00, 0x01,
  0x24, 0x00, 0x00, 0x00, 0x18, 0x00, 0x00, 0x00, 0x04, 0x00,
  0x00, 0x00, 0xA8, 0xFD, 0xFF, 0xFF, 0x01, 0x00, 0x00, 0x00,
  0x01, 0x00, 0x00, 0x00, 0x00, 0x00, 0x01, 0x01, 0x01, 0x00,
  0x00, 0x00, 0x0F, 0x00, 0x00, 0x00, 0x03, 0x00, 0x00, 0x00,
  0x0E, 0x00, 0x00, 0x00, 0x09, 0x00, 0x00, 0x00, 0x08, 0x00,
  0x00, 0x00, 0xC0, 0xB8, 0xFF, 0xFF, 0x14, 0x00, 0x00, 0x00,
  0x10, 0x00, 0x00, 0x00, 0x20, 0x00, 0x00, 0x00, 0x68, 0x00,
  0x00, 0x00, 0x50, 0x00, 0x00, 0x00, 0x04, 0x00, 0x00, 0x00,
  0x01, 0x00, 0x00, 0x00, 0x0A, 0x00, 0x00, 0x00, 0x0A, 0x00,
  0x00, 0x00, 0x08, 0x00, 0x00, 0x00, 0x32, 0x00, 0x00, 0x00,
  0x73, 0x65, 0x71, 0x75, 0x65, 0x6E, 0x74, 0x69, 0x61, 0x6C,
  0x2F, 0x72, 0x65, 0x5F, 0x6C, 0x75, 0x5F, 0x32, 0x2F, 0x52,
  0x65, 0x6C, 0x75, 0x3B, 0x73, 0x65, 0x71, 0x75, 0x65, 0x6E,
  0x74, 0x69, 0x61, 0x6C, 0x2F, 0x63, 0x6F, 0x6E, 0x76, 0x32,
  0x64, 0x5F, 0x32, 0x2F, 0x43, 0x6F, 0x6E, 0x76, 0x32, 0x44,
  0x00, 0x00, 0x04, 0x00, 0x00, 0x00, 0xFF, 0xFF, 0xFF, 0xFF,
  0x0A, 0x00, 0x00, 0x00, 0x0A, 0x00, 0x00, 0x00, 0x08, 0x00,
  0x00, 0x00, 0xE4, 0xB9, 0xFF, 0xFF, 0x00, 0x00, 0x0E, 0x00,
  0x1A, 0x00, 0x08, 0x00, 0x0C, 0x00, 0x10, 0x00, 0x07, 0x00,
  0x14, 0x00, 0x0E, 0x00, 0x00, 0x00, 0x00, 0x00, 0x00, 0x05,
  0x01, 0x00, 0x00, 0x00, 0x3C, 0x00, 0x00, 0x00, 0x30, 0x00,
  0x00, 0x00, 0x14, 0x00, 0x00, 0x00, 0x00, 0x00, 0x0E, 0x00,
  0x18, 0x00, 0x17, 0x00, 0x10, 0x00, 0x0C, 0x00, 0x08, 0x00,
  0x04, 0x00, 0x0E, 0x00, 0x00, 0x00, 0x02, 0x00, 0x00, 0x00,
  0x02, 0x00, 0x00, 0x00, 0x02, 0x00, 0x00, 0x00, 0x02, 0x00,
  0x00, 0x00, 0x00, 0x00, 0x00, 0x01, 0x01, 0x00, 0x00, 0x00,
  0x0E, 0x00, 0x00, 0x00, 0x01, 0x00, 0x00, 0x00, 0x0D, 0x00,
  0x00, 0x00, 0x76, 0xFE, 0xFF, 0xFF, 0x00, 0x00, 0x00, 0x11,
  0x01, 0x00, 0x00, 0x00, 0xA8, 0xB9, 0xFF, 0xFF, 0x14, 0x00,
  0x00, 0x00, 0x0F, 0x00, 0x00, 0x00, 0x20, 0x00, 0x00, 0x00,
  0x58, 0x00, 0x00, 0x00, 0x40, 0x00, 0x00, 0x00, 0x04, 0x00,
  0x00, 0x00, 0x01, 0x00, 0x00, 0x00, 0x0C, 0x00, 0x00, 0x00,
  0x0C, 0x00, 0x00, 0x00, 0x04, 0x00, 0x00, 0x00, 0x20, 0x00,
  0x00, 0x00, 0x73, 0x65, 0x71, 0x75, 0x65, 0x6E, 0x74, 0x69,
  0x61, 0x6C, 0x2F, 0x6D, 0x61, 0x78, 0x5F, 0x70, 0x6F, 0x6F,
  0x6C, 0x69, 0x6E, 0x67, 0x32, 0x64, 0x2F, 0x4D, 0x61, 0x78,
  0x50, 0x6F, 0x6F, 0x6C, 0x00, 0x00, 0x00, 0x00, 0x04, 0x00,
  0x00, 0x00, 0xFF, 0xFF, 0xFF, 0xFF, 0x0C, 0x00, 0x00, 0x00,
  0x0C, 0x00, 0x00, 0x00, 0x04, 0x00, 0x00, 0x00, 0xA4, 0xB9,
  0xFF, 0xFF, 0x46, 0xFF, 0xFF, 0xFF, 0x00, 0x00, 0x00, 0x01,
  0x24, 0x00, 0x00, 0x00, 0x18, 0x00, 0x00, 0x00, 0x04, 0x00,
  0x00, 0x00, 0x38, 0xFF, 0xFF, 0xFF, 0x01, 0x00, 0x00, 0x00,
  0x01, 0x00, 0x00, 0x00, 0x00, 0x00, 0x01, 0x01, 0x01, 0x00,
  0x00, 0x00, 0x0D, 0x00, 0x00, 0x00, 0x03, 0x00, 0x00, 0x00,
  0x0C, 0x00, 0x00, 0x00, 0x07, 0x00, 0x00, 0x00, 0x06, 0x00,
  0x00, 0x00, 0x50, 0xBA, 0xFF, 0xFF, 0x14, 0x00, 0x00, 0x00,
  0x0E, 0x00, 0x00, 0x00, 0x20, 0x00, 0x00, 0x00, 0x68, 0x00,
  0x00, 0x00, 0x50, 0x00, 0x00, 0x00, 0x04, 0x00, 0x00, 0x00,
  0x01, 0x00, 0x00, 0x00, 0x18, 0x00, 0x00, 0x00, 0x18, 0x00,
  0x00, 0x00, 0x04, 0x00, 0x00, 0x00, 0x32, 0x00, 0x00, 0x00,
  0x73, 0x65, 0x71, 0x75, 0x65, 0x6E, 0x74, 0x69, 0x61, 0x6C,
  0x2F, 0x72, 0x65, 0x5F, 0x6C, 0x75, 0x5F, 0x31, 0x2F, 0x52,
  0x65, 0x6C, 0x75, 0x3B, 0x73, 0x65, 0x71, 0x75, 0x65, 0x6E,
  0x74, 0x69, 0x61, 0x6C, 0x2F, 0x63, 0x6F, 0x6E, 0x76, 0x32,
  0x64, 0x5F, 0x31, 0x2F, 0x43, 0x6F, 0x6E, 0x76, 0x32, 0x44,
  0x00, 0x00, 0x04, 0x00, 0x00, 0x00, 0xFF, 0xFF, 0xFF, 0xFF,
  0x18, 0x00, 0x00, 0x00, 0x18, 0x00, 0x00, 0x00, 0x04, 0x00,
  0x00, 0x00, 0x74, 0xBB, 0xFF, 0xFF, 0x00, 0x00, 0x0E, 0x00,
  0x14, 0x00, 0x00, 0x00, 0x08, 0x00, 0x0C, 0x00, 0x07, 0x00,
  0x10, 0x00, 0x0E, 0x00, 0x00, 0x00, 0x00, 0x00, 0x00, 0x01,
  0x30, 0x00, 0x00, 0x00, 0x24, 0x00, 0x00, 0x00, 0x10, 0x00,
  0x00, 0x00, 0x0C, 0x00, 0x10, 0x00, 0x0E, 0x00, 0x04, 0x00,
  0x08, 0x00, 0x0F, 0x00, 0x0C, 0x00, 0x00, 0x00, 0x01, 0x00,
  0x00, 0x00, 0x01, 0x00, 0x00, 0x00, 0x00, 0x00, 0x01, 0x01,
  0x01, 0x00, 0x00, 0x00, 0x0C, 0x00, 0x00, 0x00, 0x03, 0x00,
  0x00, 0x00, 0x00, 0x00, 0x00, 0x00, 0x05, 0x00, 0x00, 0x00,
  0x04, 0x00, 0x00, 0x00, 0x00, 0x00, 0x0A, 0x00, 0x0C, 0x00,
  0x07, 0x00, 0x00, 0x00, 0x08, 0x00, 0x0A, 0x00, 0x00, 0x00,
  0x00, 0x00, 0x00, 0x03, 0x01, 0x00, 0x00, 0x00, 0x3C, 0xBB,
  0xFF, 0xFF, 0x14, 0x00, 0x00, 0x00, 0x0D, 0x00, 0x00, 0x00,
  0x20, 0x00, 0x00, 0x00, 0x64, 0x00, 0x00, 0x00, 0x4C, 0x00,
  0x00, 0x00, 0x04, 0x00, 0x00, 0x00, 0x01, 0x00, 0x00, 0x00,
  0x1A, 0x00, 0x00, 0x00, 0x1A, 0x00, 0x00, 0x00, 0x02, 0x00,
  0x00, 0x00, 0x2E, 0x00, 0x00, 0x00, 0x73, 0x65, 0x71, 0x75,
  0x65, 0x6E, 0x74, 0x69, 0x61, 0x6C, 0x2F, 0x72, 0x65, 0x5F,
  0x6C, 0x75, 0x2F, 0x52, 0x65, 0x6C, 0x75, 0x3B, 0x73, 0x65,
  0x71, 0x75, 0x65, 0x6E, 0x74, 0x69, 0x61, 0x6C, 0x2F, 0x63,
  0x6F, 0x6E, 0x76, 0x32, 0x64, 0x2F, 0x43, 0x6F, 0x6E, 0x76,
  0x32, 0x44, 0x00, 0x00, 0x04, 0x00, 0x00, 0x00, 0xFF, 0xFF,
  0xFF, 0xFF, 0x1A, 0x00, 0x00, 0x00, 0x1A, 0x00, 0x00, 0x00,
  0x02, 0x00, 0x00, 0x00, 0x44, 0xBB, 0xFF, 0xFF, 0x56, 0xBC,
  0xFF, 0xFF, 0x04, 0x00, 0x00, 0x00, 0x00, 0x12, 0x00, 0x00,
  0x37, 0x18, 0x21, 0x3E, 0x7F, 0x0F, 0x3A, 0x3E, 0xE0, 0x3E,
  0x62, 0xBE, 0xD3, 0x56, 0xA9, 0xBD, 0xED, 0x24, 0xE1, 0x3D,
  0x01, 0x8B, 0x7B, 0x3E, 0x8D, 0x54, 0x38, 0xBE, 0x42, 0x21,
  0x4B, 0xBE, 0xD6, 0xA0, 0x5A, 0x3E, 0xCC, 0x4E, 0xE1, 0x3D,
  0x37, 0x2C, 0x50, 0xBD, 0xC5, 0x68, 0x0E, 0xBE, 0x61, 0xBD,
  0x4D, 0x3E, 0xC3, 0xAC, 0x9E, 0x3E, 0xBA, 0xA4, 0x05, 0xBE,
  0xFC, 0x17, 0x44, 0xBE, 0xA0, 0xCA, 0x4E, 0x3E, 0x64, 0x18,
  0x3A, 0x3E, 0x5F, 0x56, 0xE3, 0xBC, 0x48, 0x79, 0x6C, 0xBE,
  0xB4, 0x19, 0x85, 0x3E, 0xEA, 0x7F, 0x56, 0x3E, 0x8B, 0xED,
  0xC4, 0xBD, 0x93, 0x7C, 0x1B, 0xBE, 0x88, 0x9F, 0xA1, 0x3D,
  0x52, 0xF5, 0xE7, 0x3D, 0xA2, 0x6E, 0x04, 0xBD, 0x88, 0x34,
  0xF0, 0xBC, 0xE3, 0x53, 0x8B, 0x3D, 0xDA, 0xB4, 0x15, 0x3E,
  0x0A, 0x63, 0x87, 0x3D, 0x5C, 0x69, 0xA3, 0x3B, 0x32, 0x38,
  0x2F, 0x3E, 0x53, 0x83, 0x08, 0x3E, 0xE5, 0xAA, 0x42, 0x3D,
  0xF0, 0xD2, 0x1C, 0x3D, 0x06, 0x9B, 0xA9, 0x3D, 0x27, 0xF0,
  0x0B, 0x3E, 0xB5, 0x7B, 0x22, 0xBC, 0xCC, 0x3B, 0xB2, 0x3D,
  0x77, 0xCD, 0x4C, 0x3D, 0x50, 0x54, 0xC7, 0x3D, 0xD8, 0x7D,
  0x01, 0x3D, 0x2E, 0x3E, 0x92, 0xBC, 0x98, 0x4A, 0x7B, 0x3D,
  0x4E, 0x89, 0x50, 0x3B, 0x0D, 0xC2, 0xCE, 0xBD, 0x47, 0x66,
  0xCF, 0xBD, 0xB0, 0xF4, 0x17, 0x3D, 0x09, 0xF0, 0xE0, 0xBA,
  0x2B, 0x1A, 0x3A, 0x3E, 0x85, 0xCD, 0xFE, 0x3D, 0x5D, 0xAB,
  0x1B, 0xBD, 0xC7, 0xF7, 0x16, 0xBE, 0xB4, 0x32, 0x47, 0x3E,
  0xB5, 0x4C, 0xF0, 0x3D, 0xD3, 0x6F, 0x16, 0xBA, 0x6C, 0x56,
  0x0C, 0xBD, 0xC0, 0xFC, 0x1C, 0xBD, 0x8F, 0x08, 0x00, 0x3E,
  0xA2, 0x8C, 0x77, 0x3D, 0x2A, 0x97, 0x4C, 0x3B, 0x64, 0xC3,
  0xA4, 0x3D, 0xE3, 0xBA, 0x8E, 0x3D, 0xC3, 0x05, 0x5E, 0x3D,
  0x31, 0x0E, 0x13, 0x3D, 0x9B, 0x3E, 0xBE, 0xBD, 0x86, 0x64,
  0xEA, 0x3D, 0xDF, 0x52, 0x1F, 0x3D, 0x4C, 0xA9, 0x22, 0x3D,
  0x22, 0x12, 0x86, 0x3D, 0x26, 0x45, 0x8B, 0x3D, 0x48, 0xCA,
  0x83, 0x3D, 0xF8, 0x54, 0x10, 0x3D, 0x66, 0xCE, 0x10, 0xBE,
  0x10, 0x6F, 0x49, 0xBC, 0xE0, 0xD1, 0xDB, 0x3C, 0x78, 0x40,
  0x39, 0x3E, 0x58, 0x75, 0x0D, 0xBD, 0x3F, 0xFB, 0x36, 0x3D,
  0xED, 0xD0, 0x63, 0x3D, 0x30, 0xA6, 0x29, 0xBD, 0x92, 0xB0,
  0xE5, 0xBD, 0xDF, 0xB6, 0x17, 0x3E, 0x89, 0x10, 0x95, 0xBD,
  0x1B, 0x22, 0x1E, 0x3E, 0x12, 0xFF, 0x83, 0xBB, 0x35, 0x81,
  0xB4, 0x3C, 0xCE, 0xB6, 0x40, 0xBE, 0x1D, 0xC4, 0xAF, 0xBE,
  0xD3, 0x2E, 0x11, 0xBE, 0x1D, 0x24, 0x1C, 0x3D, 0xAE, 0xB2,
  0x50, 0xBE, 0x1D, 0xF3, 0x99, 0x3E, 0x56, 0x34, 0xAB, 0x3C,
  0xB7, 0x99, 0xDA, 0xBB, 0xAE, 0x5A, 0x3A, 0x3E, 0x7A, 0xEF,
  0xCE, 0x3B, 0x91, 0x60, 0x20, 0xBE, 0xAF, 0x96, 0x73, 0xBB,
  0x1D, 0xD3, 0xAE, 0x3D, 0x02, 0xE0, 0x29, 0xBD, 0xB8, 0x7A,
  0x47, 0x3D, 0xB2, 0x16, 0x0B, 0x3E, 0x42, 0x81, 0x28, 0x3E,
  0xD8, 0x8F, 0xCA, 0x3D, 0x73, 0xE0, 0x85, 0xBE, 0xBF, 0xC6,
  0xF3, 0xBC, 0x45, 0xF2, 0xFA, 0x3D, 0xE4, 0x86, 0x24, 0x3D,
  0x0A, 0xAC, 0xB2, 0x3C, 0x4E, 0x61, 0x6F, 0x3D, 0xEF, 0xAB,
  0x00, 0x3E, 0xE1, 0x50, 0x80, 0x3D, 0x90, 0x0C, 0xFF, 0xBD,
  0xEC, 0xB1, 0xB8, 0x3D, 0x61, 0x10, 0xE9, 0x3D, 0x1B, 0x7D,
  0xB1, 0x3D, 0x0C, 0xEA, 0xAA, 0x3D, 0xC8, 0x5D, 0x2A, 0x3E,
  0x04, 0x9A, 0xB6, 0x3C, 0x1A, 0x32, 0x1B, 0x3D, 0x78, 0x77,
  0x23, 0xBE, 0x1C, 0x4F, 0xD6, 0xBD, 0x2D, 0x83, 0x68, 0x3C,
  0xDD, 0xB8, 0xA9, 0xBD, 0x69, 0x99, 0x0E, 0xBD, 0x5E, 0xD7,
  0xCE, 0xBD, 0x68, 0xB3, 0xBD, 0xBC, 0xB2, 0x86, 0xEA, 0x3C,
  0x63, 0xCF, 0x8B, 0xBE, 0x8A, 0x5F, 0xAC, 0xBD, 0x8D, 0xB2,
  0x03, 0xBD, 0x9D, 0xD9, 0xA9, 0xBD, 0x03, 0x00, 0xC6, 0xBD,
  0xC0, 0x4F, 0xFE, 0xBD, 0xD4, 0x9B, 0x02, 0x3E, 0xDF, 0x2F,
  0x32, 0x3B, 0x30, 0x38, 0x45, 0xBE, 0x07, 0x1A, 0x48, 0x3C,
  0x4C, 0xF1, 0x5E, 0xBC, 0x4B, 0x27, 0xD9, 0xBD, 0xB4, 0xB2,
  0x10, 0xBD, 0x89, 0xB9, 0x8D, 0xBD, 0x00, 0xA1, 0x98, 0x3C,
  0x2C, 0x59, 0x95, 0x3C, 0x1E, 0xB5, 0xEE, 0xBD, 0xF5, 0x93,
  0x86, 0xBD, 0x40, 0xE2, 0xDC, 0xBD, 0xA0, 0xB6, 0x8E, 0xBD,
  0x49, 0x53, 0x74, 0xBE, 0x19, 0x3C, 0x28, 0xBE, 0xD1, 0x66,
  0x50, 0xBC, 0x6B, 0x0A, 0xB7, 0xBA, 0x82, 0x75, 0x75, 0xBC,
  0x8A, 0x99, 0x3D, 0xBE, 0x0B, 0xCA, 0x9A, 0xBC, 0x6D, 0xFC,
  0x47, 0xBD, 0x59, 0xC7, 0x66, 0xBE, 0x47, 0x00, 0x29, 0xBE,
  0x95, 0x9B, 0x8B, 0x3C, 0x6F, 0x44, 0xF1, 0xBB, 0x1A, 0x4C,
  0x4A, 0x3D, 0xE3, 0xC1, 0x42, 0xBE, 0xEB, 0xBF, 0x93, 0xBD,
  0x95, 0xD2, 0x81, 0xBD, 0x4F, 0x5D, 0x62, 0xBD, 0xEF, 0xDA,
  0xFD, 0xBD, 0x92, 0x8F, 0x9D, 0xBD, 0x10, 0x4D, 0x75, 0x3D,
  0xFD, 0xC2, 0xE5, 0x3D, 0xFD, 0x87, 0x06, 0x3C, 0x93, 0x6D,
  0x90, 0x3D, 0xA1, 0xA6, 0x51, 0x3D, 0x6B, 0xB9, 0x92, 0xBD,
  0x0D, 0x9D, 0x5A, 0xBD, 0xDC, 0xD7, 0x18, 0x3E, 0xC5, 0xDA,
  0xCF, 0xBC, 0xED, 0x07, 0x1B, 0x3D, 0xEC, 0x45, 0x3C, 0xBC,
  0x6D, 0xE7, 0x10, 0x3E, 0x98, 0x57, 0x1F, 0xBD, 0x2D, 0x07,
  0x20, 0xBD, 0xEA, 0x5F, 0xAF, 0xBD, 0xE4, 0xA4, 0x51, 0x3E,
  0x2F, 0x36, 0x55, 0x3E, 0x87, 0xA5, 0x7D, 0xBD, 0xEE, 0x94,
  0x2C, 0x3D, 0x19, 0x2F, 0x58, 0x3E, 0xD0, 0x98, 0x84, 0x3D,
  0xCB, 0xA8, 0x07, 0xBE, 0xE3, 0x13, 0x24, 0x3D, 0x37, 0xD2,
  0x0A, 0x3D, 0xED, 0xCA, 0x8B, 0x3D, 0x68, 0x5D, 0x1C, 0x3E,
  0x37, 0x0E, 0x36, 0x3E, 0xFE, 0xCC, 0x92, 0xBC, 0x98, 0xF4,
  0xEE, 0xBD, 0x85, 0x37, 0x17, 0x3E, 0xC9, 0xCA, 0xB7, 0x3D,
  0x09, 0x75, 0xCE, 0x3C, 0x6D, 0x23, 0x33, 0xBD, 0xAC, 0x3F,
  0x3D, 0x3D, 0xC1, 0x6D, 0xA5, 0x3D, 0x1C, 0x9D, 0x72, 0xBD,
  0xC6, 0xD4, 0x98, 0xBD, 0x86, 0xF9, 0xB4, 0xBB, 0x96, 0x40,
  0x0C, 0x3E, 0x1A, 0x07, 0x98, 0xBA, 0x06, 0xDC, 0x82, 0x3D,
  0xA0, 0xE2, 0x67, 0xBD, 0x16, 0xCB, 0xD9, 0x3D, 0xBF, 0xBD,
  0x91, 0xBD, 0x60, 0x63, 0x60, 0x3D, 0x9A, 0x54, 0xC3, 0x3D,
  0xAB, 0xFB, 0xC9, 0x3D, 0xBF, 0xB5, 0x34, 0x3E, 0xA7, 0x8F,
  0xF3, 0x3D, 0xA5, 0x62, 0xED, 0xBE, 0x8B, 0x0C, 0x63, 0x3D,
  0xEC, 0x20, 0x6C, 0x3E, 0x23, 0xF4, 0x6F, 0x3E, 0xAA, 0x71,
  0x1A, 0xBD, 0x5F, 0xA5, 0xBD, 0x3D, 0xF9, 0x7D, 0x0B, 0x3E,
  0x2F, 0x9F, 0x23, 0x3E, 0xD7, 0x52, 0x33, 0xBF, 0x85, 0xFE,
  0xC6, 0x3D, 0xC8, 0x19, 0x2B, 0x3E, 0xDD, 0x8D, 0xC6, 0x3D,
  0x9D, 0xFB, 0x08, 0x3D, 0xD8, 0x4F, 0xD7, 0x3B, 0xFE, 0xB5,
  0x45, 0x3E, 0x7D, 0x57, 0x3D, 0x3E, 0xFC, 0x95, 0xC7, 0xBE,
  0x85, 0x5D, 0x7A, 0x3D, 0xBD, 0x6C, 0x6F, 0x3E, 0xD1, 0x9E,
  0x08, 0x3E, 0x39, 0xDC, 0xF9, 0x3D, 0x23, 0xC2, 0x16, 0x3D,
  0x42, 0xAE, 0x02, 0x3E, 0x0A, 0x35, 0x5D, 0x3C, 0xBA, 0x93,
  0xD6, 0xBE, 0xD8, 0x90, 0x0B, 0xBE, 0x65, 0x8C, 0x50, 0x3B,
  0x45, 0x40, 0x06, 0xBD, 0xAD, 0xCD, 0x4D, 0xBC, 0x5F, 0xFA,
  0xBC, 0xBD, 0xA3, 0x3F, 0xDE, 0x3D, 0xF2, 0xB0, 0x8B, 0xBD,
  0x05, 0xC8, 0xFA, 0xBE, 0xDD, 0x4B, 0xD9, 0xBB, 0xCC, 0xB2,
  0x78, 0xBD, 0x46, 0xD8, 0x3E, 0xBD, 0x6B, 0x9B, 0x68, 0x3D,
  0x6A, 0x32, 0x9A, 0xBD, 0x61, 0x92, 0x14, 0x3D, 0x36, 0xB8,
  0x51, 0xBD, 0xD3, 0x96, 0x7A, 0xBE, 0xDB, 0x49, 0x13, 0x3D,
  0x1C, 0x5A, 0xB2, 0xBD, 0x04, 0xEC, 0xA8, 0x3D, 0xFA, 0x38,
  0x7D, 0x3D, 0x63, 0x40, 0x23, 0xBD, 0x51, 0x26, 0x48, 0xBE,
  0x6D, 0x6B, 0x9B, 0xBE, 0xE6, 0x74, 0xC7, 0xBE, 0xAB, 0x42,
  0x3C, 0xBD, 0x2C, 0xD0, 0x8B, 0xBE, 0x27, 0x2F, 0xF1, 0x3D,
  0xBD, 0x5E, 0x79, 0xBD, 0xCE, 0x61, 0xBF, 0xBC, 0x65, 0x1D,
  0x5B, 0xBE, 0x50, 0x13, 0x82, 0xBD, 0xA2, 0x69, 0x7F, 0xBE,
  0xC4, 0x38, 0x81, 0xBD, 0x16, 0xED, 0x46, 0xBE, 0xEF, 0x5B,
  0x8C, 0x3E, 0xD2, 0x8F, 0xB0, 0xBD, 0x80, 0xEA, 0x87, 0x3D,
  0x0D, 0x82, 0xC5, 0xBC, 0xA2, 0x59, 0xD4, 0xBD, 0x47, 0xE7,
  0x80, 0xBD, 0x1F, 0x12, 0xE4, 0x3D, 0x9A, 0xC9, 0xD6, 0x3C,
  0x1A, 0xBD, 0x9F, 0x3E, 0xCC, 0xCD, 0xC1, 0x3D, 0x06, 0xAE,
  0x87, 0x3D, 0xA8, 0x22, 0x68, 0x3E, 0xAE, 0x1C, 0xDD, 0x3C,
  0x0E, 0xD0, 0x2B, 0xBE, 0xDB, 0xBA, 0x1A, 0x3C, 0x89, 0x08,
  0x5E, 0x3E, 0xA1, 0xE6, 0xC7, 0xBD, 0x09, 0x8B, 0xC5, 0x3C,
  0x84, 0x48, 0x4A, 0x3D, 0x91, 0x6D, 0xB2, 0x3D, 0x7D, 0x55,
  0xA4, 0x3D, 0x9F, 0xC4, 0x01, 0xBE, 0xF0, 0xD1, 0x7A, 0x3B,
  0x81, 0x22, 0x84, 0xBC, 0x69, 0x0C, 0xCC, 0xBD, 0x63, 0x33,
  0xFA, 0x3C, 0x81, 0x6D, 0x4B, 0x3B, 0xAF, 0x53, 0xB3, 0x3D,
  0x2F, 0x77, 0x2A, 0x3E, 0x18, 0x35, 0x13, 0xBE, 0x2B, 0x25,
  0x54, 0x3D, 0xC6, 0x37, 0xEE, 0x3D, 0x99, 0x88, 0xF1, 0x3D,
  0x6C, 0x3D, 0xA8, 0x3C, 0x54, 0x4C, 0x32, 0xBB, 0x89, 0x2E,
  0xDF, 0x3D, 0x89, 0xC7, 0x18, 0xBD, 0x41, 0xFB, 0x76, 0xBE,
  0x79, 0xE2, 0x79, 0x3D, 0x3D, 0x88, 0x87, 0xBC, 0xCE, 0x46,
  0xF9, 0x3D, 0xDB, 0x20, 0xA3, 0x3C, 0x76, 0x6E, 0x4F, 0x3D,
  0xAE, 0x6C, 0x3B, 0x3D, 0x98, 0xE2, 0xCD, 0x3C, 0x9E, 0x4C,
  0xF5, 0xBD, 0x5E, 0x0C, 0x73, 0x3D, 0xB5, 0x89, 0x11, 0x3C,
  0xDE, 0xEA, 0xB1, 0x3D, 0x5D, 0x04, 0x90, 0x3D, 0xC0, 0x3A,
  0x38, 0xBD, 0x06, 0xF3, 0x84, 0x3C, 0x04, 0xDA, 0x53, 0x3D,
  0xEC, 0xB6, 0x1A, 0xBE, 0x4F, 0x5B, 0x07, 0x3D, 0x2D, 0x8A,
  0xE2, 0x3C, 0xBC, 0x0A, 0x2A, 0xBD, 0x72, 0x54, 0x1C, 0x3C,
  0xA3, 0x50, 0xE0, 0x3D, 0x67, 0x78, 0x6E, 0xBD, 0x91, 0x84,
  0x05, 0x3D, 0x95, 0x4F, 0x32, 0xBD, 0x85, 0xD9, 0xF4, 0xBD,
  0xF4, 0x4F, 0x16, 0xBD, 0x3D, 0x8A, 0xBA, 0xBE, 0x14, 0x90,
  0x13, 0x3D, 0x80, 0x7B, 0x03, 0xBD, 0xAF, 0xA3, 0x69, 0xBD,
  0xA8, 0x9C, 0x90, 0xBD, 0xBA, 0xBF, 0x8C, 0xBD, 0xEB, 0x03,
  0x2A, 0xBD, 0xD5, 0x64, 0x32, 0x3C, 0x2D, 0x1E, 0x08, 0xBF,
  0x78, 0x77, 0x23, 0x3D, 0xC7, 0x62, 0xFE, 0xBD, 0xEE, 0x94,
  0x2F, 0xBD, 0x02, 0x2C, 0x1E, 0xBD, 0xAC, 0x5F, 0x7E, 0xBD,
  0xF1, 0xDE, 0xB9, 0xBC, 0x04, 0x35, 0x83, 0xBD, 0xD2, 0x9F,
  0xF5, 0xBE, 0x55, 0x3E, 0x9F, 0xBC, 0x61, 0xFE, 0x44, 0x3A,
  0x71, 0x70, 0x27, 0xBE, 0x56, 0x67, 0x9A, 0x3D, 0x9D, 0xFF,
  0x6F, 0x3E, 0xFC, 0x7E, 0xEE, 0x3D, 0x89, 0x23, 0x34, 0x3D,
  0xE5, 0x0F, 0x58, 0xBD, 0x92, 0x02, 0x3C, 0x3E, 0xF0, 0x6D,
  0xC5, 0x3D, 0xF0, 0xC6, 0xE1, 0xBC, 0x20, 0x56, 0xF9, 0xBC,
  0x2C, 0x02, 0x13, 0x3E, 0x7A, 0xFC, 0x88, 0x3D, 0x15, 0x59,
  0xCE, 0xBD, 0xFA, 0x70, 0x5B, 0xBD, 0x62, 0x1B, 0x26, 0x3E,
  0xAF, 0x9A, 0x11, 0x3E, 0xEF, 0xA4, 0x1C, 0xBE, 0x9C, 0x24,
  0x08, 0xBE, 0x31, 0xE2, 0x4F, 0x3E, 0x66, 0x76, 0x7D, 0x3D,
  0x4B, 0x26, 0x9D, 0xBD, 0x2F, 0x41, 0x67, 0xBD, 0xB6, 0x9D,
  0x10, 0x3E, 0x54, 0xC9, 0x0B, 0x3D, 0xA4, 0xF0, 0xD9, 0xBD,
  0x91, 0xBE, 0xF0, 0xBC, 0x01, 0xDE, 0x3B, 0x3E, 0x6E, 0x60,
  0x23, 0x3D, 0x56, 0xC0, 0x80, 0xBD, 0xD5, 0x73, 0x22, 0xBD,
  0x74, 0x3D, 0x85, 0x3D, 0x98, 0xF0, 0x61, 0x3D, 0xB1, 0x3B,
  0x3A, 0xBD, 0xE6, 0x69, 0x2A, 0xBC, 0x8D, 0xE7, 0x11, 0x3E,
  0xFF, 0x58, 0xAB, 0x3D, 0x5F, 0x10, 0x8B, 0xBD, 0xB3, 0x16,
  0x05, 0xBD, 0x0C, 0x2B, 0x41, 0x3D, 0x81, 0x22, 0x74, 0xBC,
  0xAE, 0x71, 0x81, 0xBD, 0x38, 0x8E, 0x5E, 0xBD, 0x0F, 0xE0,
  0xA0, 0x3D, 0xD7, 0x62, 0x86, 0x3B, 0xD4, 0xE7, 0x81, 0xBC,
  0xD9, 0xD6, 0xA1, 0xBD, 0xEB, 0xA2, 0x2D, 0x3C, 0xCB, 0x68,
  0xA2, 0x3C, 0xE2, 0xA9, 0x5D, 0xBE, 0x6D, 0x9B, 0x51, 0x3D,
  0xAF, 0xFD, 0xE2, 0x3D, 0x17, 0x19, 0x98, 0x3D, 0xF9, 0x5C,
  0xE2, 0xBD, 0x31, 0x0B, 0x4B, 0xBE, 0x2D, 0xC0, 0x05, 0x3D,
  0xE3, 0x6A, 0x9D, 0xBD, 0x23, 0x67, 0x84, 0xBD, 0xA2, 0x59,
  0x61, 0x3C, 0x85, 0x58, 0xAA, 0x3D, 0x02, 0x00, 0x61, 0x3B,
  0xF9, 0x57, 0xB4, 0x3C, 0x60, 0x19, 0x3E, 0xBD, 0x76, 0x84,
  0x6F, 0xBD, 0x76, 0x40, 0x34, 0x3B, 0x24, 0xD4, 0x90, 0xBC,
  0x70, 0xD9, 0x32, 0x3C, 0xD9, 0xAD, 0x0C, 0x3D, 0xB1, 0xE8,
  0xA6, 0x3D, 0xB5, 0x28, 0xB4, 0xBD, 0xCC, 0x2B, 0xF5, 0xBC,
  0x9E, 0x0E, 0xE0, 0x3A, 0xE1, 0x9A, 0x13, 0x3D, 0x09, 0x1B,
  0x45, 0x3E, 0x68, 0x33, 0xA6, 0xBC, 0x5E, 0x7A, 0x15, 0xBE,
  0xC3, 0x0F, 0xC7, 0x3C, 0x1D, 0xA0, 0xE1, 0x3D, 0x05, 0xA8,
  0x89, 0x3E, 0xBB, 0xF5, 0xA8, 0x3D, 0xEC, 0xE8, 0x68, 0x3D,
  0x14, 0x06, 0x06, 0xBD, 0xC8, 0x9F, 0xB5, 0xBC, 0xEC, 0xF5,
  0x8B, 0xBD, 0x4E, 0xBE, 0x21, 0xBD, 0xDD, 0x55, 0xDC, 0x3C,
  0x9E, 0xFC, 0x07, 0x3E, 0xB1, 0x2A, 0xEC, 0xBD, 0xE6, 0x37,
  0xB1, 0xBC, 0x4B, 0x68, 0xC6, 0x3D, 0xEA, 0xCD, 0x4E, 0x3D,
  0x2D, 0xEE, 0x15, 0xBE, 0x94, 0xF9, 0xB1, 0xBD, 0x89, 0xFA,
  0xDB, 0x3B, 0xE6, 0x70, 0x64, 0x3E, 0xFC, 0x66, 0x64, 0xBE,
  0x8B, 0x8A, 0x70, 0xBE, 0xC1, 0x90, 0x7E, 0x3E, 0xA1, 0x8B,
  0x76, 0x3E, 0x4D, 0x86, 0xD5, 0xBD, 0x11, 0x0B, 0x24, 0xBC,
  0xCE, 0x6F, 0x83, 0x3E, 0xE1, 0x1C, 0xE9, 0x3D, 0x5B, 0x26,
  0x0F, 0xBE, 0x8D, 0x2F, 0xDA, 0xBD, 0x44, 0xCC, 0xC0, 0x3D,
  0x8F, 0x95, 0x3D, 0x3E, 0x4A, 0xBE, 0x87, 0x3C, 0xAC, 0x5F,
  0xE4, 0x3D, 0xBC, 0x17, 0x3F, 0x3E, 0xFA, 0xB7, 0x01, 0x3E,
  0xFA, 0x01, 0xFE, 0xBD, 0x73, 0x95, 0x6E, 0xBD, 0x67, 0xF7,
  0x95, 0x3D, 0xEA, 0xCB, 0x17, 0x3E, 0x96, 0xF1, 0xD0, 0xBD,
  0x99, 0x41, 0xC7, 0xBD, 0x0C, 0x50, 0x18, 0x3E, 0xA6, 0x7F,
  0x93, 0x3E, 0x90, 0xF8, 0x51, 0xBE, 0xC1, 0xBB, 0x5F, 0xBD,
  0x06, 0xFB, 0x87, 0xBC, 0xD5, 0xE6, 0xD3, 0x3C, 0xE3, 0x86,
  0x8D, 0xBD, 0xB6, 0xF7, 0x9A, 0x3D, 0xB2, 0xA5, 0xD7, 0x3D,
  0x2D, 0xA5, 0x3A, 0x3E, 0x5E, 0x9D, 0x11, 0x3D, 0x83, 0x08,
  0x21, 0x3E, 0x63, 0x67, 0x63, 0x3E, 0x2C, 0x39, 0x27, 0x3E,
  0xDE, 0xCD, 0x83, 0xBD, 0x68, 0x63, 0xC9, 0x3D, 0x4F, 0x29,
  0x07, 0x3E, 0xAE, 0x1C, 0x4D, 0x3E, 0x03, 0x1A, 0x62, 0x3D,
  0x50, 0x46, 0xBC, 0x3D, 0xFC, 0x70, 0x8C, 0x3D, 0x32, 0x4A,
  0xCE, 0x3D, 0x54, 0x44, 0xA4, 0xBD, 0x43, 0x1B, 0xCE, 0xBC,
  0x39, 0xDE, 0x68, 0x3E, 0x9C, 0x9D, 0x92, 0x3E, 0x13, 0x29,
  0x5B, 0xBD, 0x4D, 0xF0, 0xBE, 0x3C, 0x3F, 0xAC, 0x04, 0x3E,
  0x3E, 0xEA, 0x31, 0x3D, 0xC4, 0x80, 0x93, 0xBD, 0xE1, 0xE6,
  0x07, 0xBD, 0x3E, 0x9D, 0x45, 0x3E, 0xB9, 0x35, 0xE2, 0xBD,
  0x1A, 0x02, 0xA2, 0x3C, 0x12, 0x33, 0x13, 0xBE, 0xAE, 0x79,
  0xE8, 0x3D, 0xC8, 0xD5, 0x13, 0x3E, 0x87, 0xC5, 0x6F, 0xBE,
  0xE7, 0xEE, 0x9C, 0xBD, 0x8B, 0x0A, 0xE8, 0x3D, 0xC2, 0x8B,
  0x0F, 0xBD, 0x15, 0xF1, 0x19, 0xBE, 0x0E, 0xB0, 0xAB, 0xBD,
  0x22, 0xEA, 0x85, 0x3D, 0xAA, 0xB4, 0xDF, 0x3D, 0xC4, 0x67,
  0xAF, 0xBA, 0xB1, 0xC0, 0xF2, 0xBC, 0x10, 0xAA, 0x5A, 0x3E,
  0x6E, 0x21, 0x17, 0xBE, 0x8A, 0xA2, 0x4F, 0xB9, 0x6E, 0x73,
  0xE8, 0xBD, 0xAE, 0x4E, 0x17, 0x3B, 0x56, 0xE0, 0xB9, 0xBC,
  0x85, 0x0F, 0x59, 0xBE, 0xD4, 0x35, 0xAB, 0xBB, 0xC0, 0x9E,
  0xCE, 0xBD, 0x6B, 0xEA, 0xA1, 0x3D, 0x75, 0xD1, 0xE0, 0xBC,
  0xDC, 0x06, 0x9F, 0xBC, 0x6A, 0xD4, 0xA1, 0xBD, 0x3C, 0x35,
  0x21, 0xBE, 0xCC, 0x9C, 0xD8, 0xBD, 0xC2, 0xF8, 0xF5, 0xBC,
  0x88, 0x89, 0xF0, 0xBD, 0xCC, 0x4E, 0x14, 0x3E, 0x08, 0x77,
  0x9A, 0xBC, 0x7B, 0xCD, 0xC9, 0xBC, 0x09, 0x5C, 0x8F, 0xBD,
  0x59, 0x20, 0x68, 0xBE, 0x4C, 0x31, 0xDB, 0xBC, 0xEB, 0x5D,
  0x5E, 0x3C, 0x2F, 0xDD, 0x82, 0xBD, 0x51, 0x6E, 0xA3, 0x3E,
  0xA5, 0x10, 0x65, 0xBD, 0x6B, 0x72, 0x24, 0x3C, 0x38, 0xF9,
  0xAA, 0x3D, 0xCF, 0x49, 0xDE, 0x3D, 0x42, 0x92, 0x53, 0xBC,
  0xAE, 0x7C, 0x7A, 0x3C, 0x55, 0xE9, 0xC3, 0x3D, 0x38, 0xE4,
  0x74, 0x3D, 0xE0, 0x88, 0x9F, 0x3D, 0xD9, 0x9F, 0x02, 0x3E,
  0xEF, 0xDF, 0xD4, 0x3C, 0xFE, 0xE5, 0x16, 0x3E, 0x24, 0xA7,
  0x92, 0xBD, 0xB9, 0xFD, 0x10, 0x3E, 0xBF, 0xF8, 0x19, 0x3D,
  0xBE, 0xA2, 0x28, 0x3E, 0x89, 0x2A, 0x5B, 0x3D, 0x02, 0x6D,
  0x00, 0x3E, 0xA2, 0xB0, 0x1C, 0x3E, 0x1B, 0xB8, 0x47, 0x3D,
  0x81, 0x49, 0x29, 0xBD, 0x2A, 0xAB, 0xCC, 0x3C, 0x67, 0x2E,
  0x24, 0x3E, 0x5F, 0xD8, 0x1D, 0x3E, 0x58, 0x3C, 0x19, 0x3E,
  0x56, 0x27, 0x01, 0x3E, 0x75, 0x0B, 0x80, 0x3D, 0xE2, 0xA6,
  0x1F, 0x3D, 0xBD, 0xAB, 0x35, 0xBC, 0x21, 0x35, 0xB7, 0xBC,
  0xEE, 0xA0, 0x13, 0x3D, 0xD0, 0x80, 0xC1, 0xBD, 0x16, 0x41,
  0xD8, 0xBC, 0x03, 0xC0, 0x2C, 0xBD, 0x50, 0xB7, 0x15, 0xBD,
  0xE6, 0xE9, 0x39, 0xBE, 0x3E, 0x9D, 0x16, 0xBE, 0xB4, 0xE6,
  0x29, 0xBD, 0xCC, 0x79, 0xB3, 0xBD, 0x64, 0x56, 0x02, 0xBE,
  0xB8, 0x53, 0x4C, 0xBD, 0xED, 0x17, 0xC9, 0x3B, 0x3E, 0xDD,
  0x60, 0x3D, 0x88, 0xC1, 0x99, 0xBC, 0xFD, 0x12, 0xCA, 0xBC,
  0xA0, 0xC5, 0xA8, 0x3C, 0xA7, 0xA1, 0x01, 0x3D, 0x64, 0x8E,
  0x15, 0x3E, 0x6B, 0x0B, 0x91, 0x3D, 0xE0, 0x0D, 0xE0, 0x3D,
  0x13, 0x40, 0x1F, 0xBE, 0x96, 0xF2, 0x90, 0xBD, 0xC0, 0x24,
  0x8D, 0xBE, 0xE3, 0xC1, 0x1C, 0x3D, 0xC3, 0xEC, 0x1F, 0xBE,
  0x74, 0xB2, 0xC0, 0xBD, 0x87, 0x0C, 0xC8, 0x3C, 0x57, 0x70,
  0x75, 0xBC, 0x09, 0x14, 0xC8, 0xBD, 0xB9, 0x57, 0x93, 0x3D,
  0x77, 0xA5, 0xB0, 0xBD, 0xEA, 0x7A, 0x78, 0xBB, 0xE8, 0xCA,
  0x23, 0xBD, 0x70, 0x25, 0x54, 0x3D, 0x99, 0x04, 0x1D, 0xBC,
  0x87, 0x15, 0x2C, 0xBD, 0xD8, 0x47, 0xB0, 0x3D, 0xDA, 0xBC,
  0x81, 0x3D, 0xB3, 0x5B, 0x9B, 0xBC, 0x39, 0xF1, 0x30, 0x3D,
  0x7E, 0x39, 0x14, 0x3E, 0x3E, 0xE3, 0x85, 0x3D, 0x39, 0x30,
  0xD5, 0x3D, 0x69, 0x8B, 0x0E, 0x3E, 0x26, 0xB8, 0x29, 0x3B,
  0xC2, 0x4F, 0xCE, 0x3C, 0x78, 0x5C, 0x63, 0xBD, 0x1D, 0x37,
  0x22, 0x3D, 0xBB, 0x66, 0xA6, 0x3D, 0x4D, 0x17, 0x26, 0x3E,
  0x8A, 0x4C, 0x93, 0x3D, 0x3C, 0x0D, 0x1D, 0x3E, 0x58, 0xC4,
  0xF8, 0x3A, 0x42, 0x73, 0x65, 0x3E, 0x19, 0x26, 0x53, 0xBC,
  0x5B, 0xD9, 0x29, 0xBD, 0xA2, 0xB3, 0xA9, 0x3D, 0x9C, 0x7D,
  0x42, 0x3D, 0x45, 0xD1, 0x0C, 0x3E, 0x6F, 0x36, 0x8A, 0x3C,
  0xA4, 0x44, 0x99, 0x3C, 0x3A, 0x9F, 0xAC, 0x3D, 0xC6, 0x44,
  0x51, 0xBD, 0xC5, 0xFE, 0x2C, 0xBE, 0xF8, 0xE3, 0xAF, 0x3D,
  0xA7, 0xF9, 0x0B, 0xBE, 0x41, 0xBE, 0x36, 0xBD, 0x4F, 0x25,
  0x9A, 0xBD, 0x0E, 0x01, 0x3A, 0x3E, 0x4C, 0xD7, 0xFB, 0x3D,
  0x16, 0xA5, 0x30, 0xBE, 0xCD, 0x9E, 0x6D, 0xBD, 0xA1, 0x75,
  0x1D, 0x3E, 0x05, 0xB2, 0x15, 0x3E, 0x43, 0x81, 0x76, 0x3D,
  0xA4, 0x97, 0xF4, 0x3D, 0x37, 0x39, 0x37, 0x3D, 0x35, 0x09,
  0x3D, 0xBC, 0x72, 0x85, 0x07, 0xBC, 0xAC, 0x5E, 0x6E, 0x3D,
  0xF3, 0x37, 0x1A, 0x3E, 0x6C, 0xA2, 0xE8, 0x3C, 0x75, 0xBE,
  0x21, 0x3D, 0x4D, 0x8B, 0x50, 0x3D, 0x30, 0xF7, 0x2E, 0x3E,
  0xCA, 0x50, 0x87, 0x3E, 0x2E, 0xDF, 0x8D, 0xBD, 0xD0, 0x4D,
  0xA7, 0x3D, 0xCA, 0x67, 0x2A, 0x3E, 0x00, 0x00, 0xF9, 0x3D,
  0x24, 0x7F, 0x15, 0x3C, 0xB4, 0x43, 0xD5, 0x3D, 0x40, 0xEA,
  0xFC, 0x3D, 0xC3, 0x7D, 0x2D, 0x3E, 0x7B, 0xA4, 0xA7, 0xBE,
  0x2A, 0x88, 0xF4, 0xBD, 0x04, 0xC0, 0xB8, 0x3D, 0x03, 0x74,
  0x87, 0x3E, 0xDB, 0x3E, 0xAD, 0x3B, 0xB9, 0x6B, 0xC6, 0xBD,
  0x14, 0xB5, 0xF5, 0x3D, 0x4C, 0xD3, 0x3F, 0x3C, 0xFB, 0x83,
  0xE7, 0xBC, 0xE9, 0xBC, 0xFF, 0xBD, 0x64, 0x2B, 0xF3, 0x3D,
  0xE2, 0x0A, 0x73, 0x3D, 0xF3, 0x41, 0x68, 0x3C, 0xC9, 0xAD,
  0xD1, 0xBC, 0x05, 0x59, 0x60, 0xBC, 0x69, 0x26, 0xC2, 0x3D,
  0x1C, 0x1A, 0x47, 0xBD, 0x02, 0xAA, 0x9F, 0xBC, 0xFA, 0xF5,
  0x8C, 0x3D, 0x52, 0x50, 0x12, 0xBE, 0x31, 0xA9, 0x73, 0x3C,
  0xBE, 0x02, 0x4B, 0xBC, 0x87, 0x67, 0x49, 0x3E, 0xD3, 0x49,
  0x4B, 0x3E, 0xBC, 0x58, 0xA6, 0xBE, 0x6D, 0x4F, 0x6F, 0xBE,
  0x10, 0x3C, 0x92, 0x3D, 0x20, 0x26, 0x50, 0x3C, 0x4C, 0x24,
  0x91, 0xBE, 0x1F, 0xB7, 0x07, 0xBE, 0xF0, 0xDD, 0xE4, 0xBC,
  0xF8, 0x24, 0x0E, 0x3D, 0x9A, 0x1F, 0xB0, 0xBC, 0xF8, 0xB3,
  0x8A, 0xBD, 0x5C, 0x96, 0xC1, 0xBC, 0x36, 0x9A, 0x3A, 0xBE,
  0x1C, 0x77, 0x89, 0xBD, 0x53, 0x66, 0xE5, 0xBD, 0xC8, 0xC6,
  0x27, 0xBE, 0x83, 0xEC, 0xD5, 0xBD, 0x6B, 0xE9, 0xD6, 0xBC,
  0x40, 0x75, 0x87, 0xBD, 0x25, 0x30, 0x1E, 0xBE, 0xEF, 0x16,
  0x85, 0xBE, 0x99, 0x9C, 0x6D, 0xBD, 0xD6, 0x25, 0xC9, 0xBD,
  0x9E, 0x03, 0x17, 0x3D, 0x16, 0xD2, 0xF9, 0x3D, 0xCD, 0xFD,
  0x27, 0xBE, 0xC5, 0x6D, 0x5E, 0xBC, 0xB5, 0x9C, 0xE3, 0x3C,
  0x17, 0xAB, 0x01, 0x3E, 0xA8, 0x77, 0xEA, 0xBC, 0x83, 0x84,
  0x8D, 0xBC, 0xDC, 0xE4, 0x6B, 0xBC, 0x9C, 0x2F, 0xE3, 0x3C,
  0x2F, 0x7E, 0xD7, 0xBD, 0x4C, 0x43, 0x9F, 0xBD, 0x4B, 0x8A,
  0x2B, 0xBD, 0x54, 0x0A, 0xB8, 0x3D, 0xEA, 0x97, 0xAC, 0xBD,
  0x96, 0x04, 0xE8, 0xBD, 0x90, 0x80, 0x5E, 0x3D, 0xEA, 0xFC,
  0xAF, 0x3D, 0x3A, 0x83, 0x46, 0xBE, 0x66, 0x50, 0x3A, 0xBD,
  0x05, 0x5D, 0x1F, 0xBC, 0x79, 0x33, 0xBA, 0x3E, 0x56, 0x6A,
  0x6F, 0xBD, 0xCF, 0x16, 0x7A, 0xBD, 0x0E, 0x62, 0x28, 0x3D,
  0x19, 0x4B, 0x32, 0x3E, 0x1E, 0xB9, 0xAD, 0x3C, 0x2D, 0x22,
  0x9B, 0x3B, 0x55, 0xC4, 0xCC, 0x3D, 0x40, 0xFB, 0xDA, 0x3D,
  0x97, 0x66, 0x98, 0x3D, 0x1F, 0x98, 0xF6, 0x3D, 0x0E, 0x11,
  0x65, 0x3D, 0xD8, 0x50, 0xE0, 0x3D, 0xE4, 0x1E, 0x28, 0xBC,
  0x00, 0x11, 0x12, 0x3D, 0x88, 0xC8, 0xD4, 0x3D, 0x7F, 0xE1,
  0x44, 0x3E, 0x02, 0x74, 0x24, 0xBD, 0xC8, 0xB4, 0x44, 0x3D,
  0xFF, 0x5C, 0xC8, 0x3D, 0x80, 0xE2, 0xDC, 0x3D, 0x3C, 0x6E,
  0x69, 0xBE, 0x37, 0x47, 0xA3, 0xBC, 0xC9, 0xBE, 0xC1, 0x3D,
  0x4C, 0xF0, 0x13, 0x3E, 0x95, 0xBE, 0x4B, 0xBD, 0x1C, 0x4D,
  0x46, 0xBD, 0x74, 0x6B, 0x4C, 0x3E, 0xBF, 0x5B, 0x07, 0x3E,
  0x7D, 0x61, 0x9A, 0xBD, 0xFF, 0x60, 0x26, 0xBD, 0xB2, 0x96,
  0x2F, 0x3E, 0xCF, 0xD3, 0x51, 0x3E, 0x48, 0x8A, 0xDC, 0x3D,
  0xE5, 0x90, 0x80, 0x3D, 0xD9, 0x07, 0x72, 0x3E, 0xBE, 0xBE,
  0xAE, 0x3D, 0x25, 0x7D, 0x20, 0xBE, 0x1E, 0x10, 0xC5, 0xBC,
  0xB4, 0x64, 0x96, 0x3D, 0xD7, 0xA4, 0xA4, 0x3E, 0x7B, 0x81,
  0xC0, 0xBB, 0x5E, 0xC3, 0x98, 0xBC, 0x0F, 0x93, 0xE0, 0x3D,
  0xA8, 0x84, 0x68, 0x3E, 0xAC, 0xB7, 0x9E, 0xBE, 0x4F, 0x72,
  0x32, 0x3C, 0xB0, 0x34, 0xE7, 0x3D, 0x58, 0xE4, 0x0A, 0x3E,
  0x9C, 0x06, 0x0A, 0x3C, 0x83, 0x0F, 0x20, 0xBC, 0xC9, 0x8D,
  0xA6, 0x3D, 0x56, 0x3C, 0xC4, 0x3D, 0x34, 0x80, 0x35, 0x3D,
  0x9C, 0x34, 0xEC, 0x3D, 0x64, 0x6B, 0x35, 0x3E, 0xC1, 0xB2,
  0xE3, 0x3C, 0x52, 0x6F, 0x05, 0x3E, 0x95, 0xF2, 0x95, 0x3D,
  0x61, 0xB9, 0xFC, 0x3D, 0x3B, 0x30, 0x11, 0x3E, 0xE6, 0x30,
  0x8A, 0x3D, 0x70, 0xC7, 0x13, 0xBD, 0x79, 0xDE, 0xE7, 0x3D,
  0x2D, 0x78, 0xAA, 0xBC, 0x67, 0xDA, 0x6B, 0x3D, 0xAC, 0x9B,
  0x3F, 0xBD, 0xA6, 0x5C, 0x3B, 0x3E, 0xCB, 0x30, 0x04, 0x3E,
  0x0C, 0x30, 0x39, 0xBD, 0x01, 0xC3, 0xF9, 0xBC, 0x76, 0xB7,
  0x28, 0x3E, 0xA7, 0x1E, 0x31, 0x3E, 0x69, 0x2A, 0xB1, 0xBD,
  0xB8, 0x4C, 0xC2, 0x3C, 0x70, 0x2F, 0x4F, 0x3D, 0xA2, 0x16,
  0x9E, 0xBD, 0x77, 0x2D, 0x10, 0x3E, 0x9F, 0x54, 0x5C, 0x3D,
  0x86, 0xF5, 0x9F, 0xBD, 0x86, 0x84, 0xE9, 0xBD, 0x12, 0x3D,
  0x7F, 0x3D, 0x80, 0x2A, 0x60, 0xBD, 0xDF, 0x2E, 0x17, 0x3C,
  0xBB, 0x0A, 0x3D, 0xBD, 0x16, 0x49, 0x6B, 0xBD, 0xB0, 0x32,
  0xF4, 0x3C, 0x66, 0x89, 0x98, 0xBD, 0xE3, 0xDD, 0xFD, 0x3D,
  0xC4, 0x4E, 0x0A, 0x3C, 0x6A, 0xC1, 0x28, 0xBC, 0x42, 0x88,
  0xB1, 0x3D, 0xD7, 0x85, 0xA6, 0x3D, 0xD7, 0x5E, 0x48, 0xBE,
  0x09, 0xFD, 0xE4, 0xBC, 0x4D, 0xB1, 0x4F, 0x3C, 0xBA, 0x7B,
  0x8F, 0x3E, 0x2E, 0x84, 0xB3, 0x3C, 0x0E, 0xF0, 0x32, 0x3D,
  0xF6, 0x80, 0x02, 0x3D, 0xFC, 0x72, 0xBA, 0xBD, 0xBD, 0x23,
  0x37, 0xBE, 0xD6, 0xE9, 0x2E, 0x3E, 0xB3, 0xCA, 0x3D, 0x3D,
  0xB4, 0x89, 0xED, 0x3B, 0x76, 0x21, 0xB7, 0x3D, 0x13, 0x30,
  0xC1, 0x3D, 0xF4, 0x9A, 0x57, 0x3D, 0x0F, 0xF4, 0x5F, 0xBD,
  0xA5, 0x80, 0x4A, 0xBD, 0x6E, 0x36, 0xCE, 0x3C, 0xFF, 0x1E,
  0x17, 0x3D, 0x88, 0x02, 0x82, 0x3B, 0x5F, 0xDF, 0xAF, 0x3C,
  0x1F, 0x60, 0x0F, 0x3D, 0x62, 0xB3, 0x2B, 0x3E, 0x6D, 0x06,
  0x78, 0x3D, 0xB4, 0x54, 0xD3, 0xBD, 0x81, 0x9C, 0x5A, 0xBC,
  0x69, 0xE6, 0xC5, 0x3D, 0xD5, 0xAE, 0x20, 0x3D, 0x35, 0xB9,
  0x6B, 0x3C, 0x3F, 0xBC, 0xAF, 0x3D, 0x70, 0x48, 0x7A, 0x3C,
  0x08, 0xC3, 0xAB, 0x3D, 0x19, 0x44, 0x2F, 0x3E, 0x8F, 0xF9,
  0x0A, 0x3D, 0xE4, 0x9C, 0xDF, 0x3D, 0xCC, 0x3D, 0x0B, 0xBE,
  0x37, 0xD8, 0xC9, 0xBD, 0x4A, 0xE4, 0x91, 0xBD, 0x9C, 0xC8,
  0x2A, 0x3D, 0x02, 0xE3, 0x15, 0xBD, 0xFF, 0x64, 0x35, 0x3E,
  0xF1, 0x0B, 0x7F, 0xBC, 0x9E, 0x83, 0x61, 0x3C, 0x3D, 0x2B,
  0xD0, 0xBD, 0x98, 0x74, 0xAE, 0x3D, 0xEF, 0xA7, 0xE5, 0xBD,
  0xCA, 0x61, 0x16, 0xBD, 0xB0, 0xFB, 0xD4, 0xBB, 0x38, 0x78,
  0x61, 0x3E, 0xFE, 0xFA, 0xFA, 0xBD, 0x12, 0x7C, 0x9E, 0xBD,
  0xD9, 0x7C, 0xEA, 0xBD, 0x02, 0x54, 0x32, 0xBE, 0xA1, 0x44,
  0x01, 0xBE, 0xEA, 0x19, 0x5F, 0xBD, 0x65, 0xE9, 0xCF, 0xBD,
  0xEC, 0x1D, 0x9D, 0x3E, 0x46, 0x6F, 0xD4, 0x3D, 0x6C, 0xA4,
  0x0A, 0x3D, 0x22, 0x9B, 0xA6, 0xBE, 0x64, 0x27, 0x84, 0x3D,
  0x23, 0x0A, 0x2F, 0x3B, 0xA0, 0x67, 0xAF, 0x3D, 0x3A, 0x11,
  0x14, 0x3E, 0x95, 0xA6, 0x89, 0x3E, 0xD7, 0x0B, 0x45, 0xBD,
  0x88, 0x4B, 0xD3, 0x3D, 0xFA, 0x93, 0xA6, 0xBE, 0x87, 0x60,
  0xE9, 0x3C, 0xE0, 0xBC, 0xAD, 0xBC, 0xA4, 0xEB, 0x42, 0x3D,
  0xBA, 0xDE, 0x76, 0x3D, 0x41, 0x1F, 0xC1, 0x3D, 0xFA, 0x2A,
  0xD9, 0xBD, 0xAC, 0x76, 0x62, 0x3D, 0x06, 0x86, 0x27, 0xBE,
  0x67, 0x4B, 0x88, 0xBB, 0x92, 0xF1, 0x1E, 0xBE, 0xC3, 0x21,
  0x0F, 0x3D, 0x69, 0xD8, 0x94, 0xBC, 0x02, 0xD8, 0xAA, 0x3E,
  0x68, 0x71, 0x08, 0x3E, 0x0B, 0xED, 0xBC, 0xBC, 0x55, 0x91,
  0x5E, 0xBE, 0x04, 0xAD, 0x02, 0x3E, 0xC5, 0x42, 0xBC, 0x3D,
  0x72, 0x7B, 0xC9, 0x3D, 0xE1, 0x8C, 0x29, 0x3E, 0x60, 0x4D,
  0x56, 0x3E, 0x1C, 0x42, 0x5D, 0x3D, 0x04, 0x41, 0x73, 0xBD,
  0xC9, 0xA1, 0x19, 0xBE, 0x38, 0x45, 0xC9, 0x3D, 0xA8, 0xEA,
  0x22, 0xBD, 0xE2, 0xCF, 0x9E, 0x3D, 0x42, 0x12, 0xD1, 0xBB,
  0x05, 0xEC, 0x50, 0x3D, 0x98, 0x0F, 0x5F, 0xBD, 0x0E, 0x07,
  0x38, 0x3E, 0x4B, 0x8B, 0xD3, 0xBD, 0xD0, 0x0F, 0xA0, 0xBC,
  0xC8, 0xA6, 0x15, 0xBE, 0xBC, 0xAC, 0x57, 0xBE, 0x4E, 0x49,
  0x28, 0xBE, 0x32, 0x94, 0xA2, 0x3D, 0x8E, 0xB7, 0xD8, 0x3D,
  0xC4, 0xA8, 0xA4, 0xBD, 0x66, 0x7A, 0xBC, 0xBD, 0xBA, 0x5A,
  0xAA, 0xBC, 0x60, 0x2E, 0x73, 0x3D, 0x4C, 0x8B, 0xF6, 0xBC,
  0xC8, 0x90, 0x8C, 0x3C, 0xB1, 0xD3, 0x40, 0x3E, 0x3D, 0x59,
  0xF0, 0x3D, 0x36, 0x62, 0x37, 0xBD, 0xD0, 0xED, 0xF6, 0xBD,
  0xD4, 0x68, 0xFE, 0x3D, 0x73, 0x3B, 0x4B, 0x3D, 0x1C, 0x72,
  0xD8, 0x3D, 0x21, 0xF1, 0x1C, 0xBB, 0x02, 0x8E, 0x22, 0x3D,
  0xDA, 0x2A, 0x1D, 0x3E, 0x52, 0xB7, 0x06, 0x3D, 0xCE, 0x67,
  0x70, 0x3A, 0x7D, 0x0A, 0x9D, 0x3D, 0xB9, 0xDC, 0x9D, 0x3C,
  0xEE, 0x77, 0x06, 0xBE, 0x6E, 0x29, 0x09, 0x3D, 0x27, 0x0C,
  0x47, 0x3E, 0xFD, 0xDA, 0xB3, 0x3D, 0xBE, 0x07, 0x30, 0x3D,
  0x88, 0x5F, 0x84, 0xBE, 0x27, 0xB9, 0xCA, 0x3D, 0xD9, 0x2C,
  0x80, 0x3D, 0x7D, 0x93, 0x23, 0xBD, 0xCC, 0x54, 0xC2, 0xB9,
  0xD6, 0x4C, 0x1C, 0x3E, 0x47, 0x95, 0xB2, 0xBD, 0x65, 0xAB,
  0xB6, 0x3D, 0x2B, 0x18, 0xE6, 0xBD, 0x19, 0xDB, 0x17, 0xB8,
  0xD4, 0xEF, 0xFC, 0xBC, 0xCF, 0x79, 0xF4, 0x3C, 0x64, 0x34,
  0x8D, 0xBD, 0x7C, 0x79, 0x0E, 0x3D, 0x92, 0x01, 0x44, 0x3D,
  0x44, 0x38, 0xD8, 0x3C, 0x7D, 0x6D, 0x87, 0xBC, 0x9E, 0xF3,
  0x42, 0x3C, 0x1E, 0x6C, 0x79, 0x3C, 0x82, 0xC0, 0xEE, 0xBD,
  0x00, 0x74, 0x28, 0xBE, 0x6B, 0x23, 0xC0, 0x3D, 0x05, 0x6B,
  0x97, 0x3C, 0xAB, 0xB5, 0xE8, 0xBD, 0x59, 0xD5, 0x22, 0xBE,
  0x0C, 0xF6, 0x18, 0x3E, 0xFC, 0xBC, 0xA7, 0x3D, 0x6B, 0xE5,
  0xA2, 0xBD, 0x8D, 0xF9, 0x56, 0xBD, 0x42, 0xB0, 0x10, 0x3B,
  0x26, 0xE8, 0x42, 0x3C, 0x3E, 0xB0, 0x86, 0xBD, 0x2D, 0x72,
  0x33, 0x3D, 0xF6, 0x9A, 0xAD, 0x3C, 0x38, 0x11, 0xB3, 0xBC,
  0x74, 0x63, 0xA8, 0x3D, 0x99, 0x8C, 0xCC, 0xBD, 0x74, 0x5E,
  0xFF, 0x3D, 0x3B, 0x33, 0x15, 0x3E, 0xB1, 0x98, 0x59, 0x3A,
  0x6A, 0x27, 0x07, 0x3E, 0xB8, 0x61, 0x89, 0x3D, 0x9E, 0x47,
  0xD1, 0x3D, 0x1B, 0x14, 0xB0, 0x3D, 0xF1, 0x85, 0xE5, 0x3C,
  0xB9, 0xF0, 0x1E, 0x3D, 0xD4, 0xBF, 0xC8, 0x3D, 0xF3, 0x8D,
  0x12, 0x3E, 0xC0, 0x4F, 0xF8, 0xBC, 0x2D, 0xE8, 0x9E, 0x3D,
  0x21, 0xFD, 0x54, 0x3D, 0x43, 0x03, 0x7C, 0x3D, 0x7B, 0x99,
  0xC4, 0x3C, 0x6E, 0x8F, 0xBE, 0x3B, 0xDB, 0x03, 0x15, 0xBD,
  0x73, 0x55, 0xF2, 0x3D, 0xF8, 0x0B, 0x0E, 0x3D, 0x90, 0x07,
  0xF2, 0x3C, 0x42, 0xFD, 0x0C, 0xBD, 0xBC, 0x01, 0xFF, 0x3D,
  0xE5, 0xFE, 0x6C, 0xBA, 0x5A, 0x0E, 0xE2, 0xBD, 0x90, 0x1F,
  0x96, 0xBD, 0x97, 0x13, 0xB1, 0x3D, 0xFA, 0x24, 0xDF, 0x3D,
  0xAC, 0xEE, 0xEF, 0x3C, 0x1D, 0x88, 0xA8, 0xBD, 0x57, 0x47,
  0x27, 0x3D, 0x8D, 0x64, 0x08, 0x3D, 0x39, 0x8F, 0x8D, 0xBC,
  0x88, 0x07, 0x05, 0x3E, 0xB1, 0x08, 0x8B, 0x3D, 0x86, 0x6D,
  0x0A, 0xBB, 0x10, 0xD5, 0x85, 0x3D, 0x36, 0xD2, 0x34, 0x3D,
  0xA6, 0x54, 0x7E, 0x3D, 0xBB, 0x63, 0x8D, 0xBD, 0x85, 0xE1,
  0x30, 0xBE, 0xAD, 0x11, 0x16, 0x3D, 0xF7, 0x80, 0x1D, 0xBD,
  0xE1, 0x9D, 0xA0, 0x3D, 0x79, 0xC3, 0xB0, 0xBC, 0x5C, 0xD2,
  0x0F, 0x3E, 0x64, 0xA0, 0xB8, 0x3D, 0x10, 0x95, 0x4A, 0xBC,
  0x86, 0xDD, 0x2E, 0xBE, 0x29, 0xDF, 0x8A, 0x3C, 0xBE, 0x5C,
  0x71, 0xBD, 0x2A, 0x06, 0x40, 0x3E, 0x1B, 0x9D, 0x84, 0xBC,
  0x2F, 0xEB, 0x90, 0x39, 0x91, 0x01, 0x81, 0x3D, 0x26, 0x90,
  0xA9, 0xBC, 0x9A, 0x30, 0x8A, 0xBE, 0xBE, 0xAF, 0x86, 0x3D,
  0xBC, 0x43, 0x4E, 0x3B, 0xE9, 0x5A, 0xC0, 0xBC, 0x83, 0x0D,
  0x9C, 0x3D, 0x07, 0x12, 0xA8, 0x3D, 0x08, 0xAD, 0x9D, 0xBD,
  0x24, 0xB8, 0x03, 0xBD, 0xD2, 0xFB, 0x76, 0xBE, 0xE7, 0x49,
  0x70, 0xBD, 0x6F, 0xFF, 0x17, 0xBD, 0x9C, 0x23, 0x91, 0x3B,
  0x7B, 0x42, 0x3C, 0xBB, 0x03, 0xAA, 0x82, 0x3D, 0x34, 0x78,
  0xBE, 0x3D, 0x65, 0x0C, 0xC2, 0xBD, 0x9E, 0xF4, 0xA2, 0xBE,
  0xF9, 0x10, 0x90, 0x3B, 0xFC, 0x7A, 0x24, 0xBC, 0x4D, 0x5F,
  0xE9, 0x3D, 0xBB, 0x4B, 0xCE, 0x3D, 0x7E, 0xB4, 0x69, 0x3C,
  0x81, 0x91, 0x11, 0x3D, 0xDF, 0x78, 0x13, 0x3D, 0x4F, 0x22,
  0x1A, 0xBE, 0x89, 0x34, 0x89, 0x3D, 0x67, 0xA1, 0xE9, 0x3C,
  0xD2, 0x0E, 0x8C, 0x3E, 0x46, 0x84, 0x5B, 0xBB, 0x2D, 0x1C,
  0x78, 0x3D, 0xCF, 0x52, 0x05, 0x3E, 0xCA, 0xA9, 0x99, 0x3D,
  0x9D, 0xB4, 0xE4, 0xBC, 0x69, 0x60, 0x5E, 0x3D, 0x29, 0xE0,
  0x98, 0x3D, 0xC9, 0x86, 0x12, 0x3E, 0x34, 0x28, 0xF2, 0x3D,
  0xA6, 0x78, 0x0F, 0x3E, 0x50, 0xD7, 0x45, 0x3E, 0x22, 0x4C,
  0xEF, 0x3D, 0x04, 0x1A, 0xDF, 0xBD, 0x7B, 0x4B, 0xBE, 0x3D,
  0x2F, 0x6D, 0x2C, 0x3E, 0x7A, 0xD3, 0x57, 0x3E, 0x56, 0xA4,
  0x98, 0x3D, 0x5C, 0x7E, 0xE5, 0x3C, 0x6C, 0x92, 0x82, 0x3C,
  0x7B, 0x74, 0x4E, 0x3D, 0x67, 0x50, 0x2C, 0xBC, 0x6C, 0x28,
  0xFC, 0x3D, 0x09, 0x49, 0x9B, 0xBD, 0x2D, 0x5F, 0x86, 0x3E,
  0xF7, 0x4D, 0xB8, 0x3D, 0x6E, 0x22, 0x0B, 0x3E, 0xA5, 0xA0,
  0x20, 0x3D, 0xFE, 0x6F, 0x25, 0x3D, 0x31, 0x07, 0x23, 0x3D,
  0x5D, 0x63, 0x78, 0xBC, 0x0B, 0x8A, 0x9B, 0xBA, 0xBA, 0x6D,
  0x61, 0x3E, 0xB6, 0x4F, 0x8F, 0x3C, 0x5F, 0x9B, 0x03, 0xBD,
  0xF8, 0x38, 0x48, 0xBC, 0xD9, 0x70, 0x21, 0x3E, 0xA3, 0x8A,
  0xD3, 0xBC, 0x13, 0xFC, 0xF2, 0xBD, 0x02, 0x69, 0xDB, 0x3D,
  0x08, 0x0F, 0x7B, 0xBC, 0x7D, 0xDD, 0x74, 0xBD, 0x45, 0xDC,
  0xAC, 0xBD, 0xBA, 0xBD, 0xC6, 0xBC, 0xF5, 0xBC, 0xFD, 0xBD,
  0xAC, 0xDD, 0x57, 0x3C, 0xAB, 0x8A, 0x46, 0x3D, 0x40, 0x1B,
  0xA5, 0xBD, 0x95, 0x77, 0x41, 0x3E, 0xE0, 0xCD, 0xBD, 0xBC,
  0x3B, 0x23, 0x2C, 0xBC, 0xDB, 0x4B, 0x05, 0xBE, 0xEA, 0x44,
  0xCA, 0xBD, 0xF3, 0x59, 0x68, 0xBD, 0xA7, 0x81, 0x49, 0x3D,
  0xD3, 0x58, 0xAC, 0xBD, 0x2F, 0x61, 0x05, 0x3E, 0x66, 0x0A,
  0x46, 0x3C, 0x53, 0x67, 0xDB, 0xBD, 0x73, 0x5F, 0xE8, 0xBD,
  0xA6, 0xA6, 0xDF, 0xBD, 0x86, 0x78, 0xCD, 0xBD, 0x65, 0x8D,
  0xB8, 0xBD, 0x04, 0x99, 0xC3, 0xBD, 0xDB, 0x42, 0x70, 0x3D,
  0x70, 0x3A, 0x18, 0xBE, 0x11, 0xA6, 0xEE, 0xBD, 0x26, 0xCE,
  0xFF, 0xFF, 0x10, 0x00, 0x00, 0x00, 0x0C, 0x00, 0x00, 0x00,
  0x1C, 0x00, 0x00, 0x00, 0x38, 0x00, 0x00, 0x00, 0x04, 0x00,
  0x00, 0x00, 0x10, 0x00, 0x00, 0x00, 0x03, 0x00, 0x00, 0x00,
  0x03, 0x00, 0x00, 0x00, 0x08, 0x00, 0x00, 0x00, 0x1B, 0x00,
  0x00, 0x00, 0x73, 0x65, 0x71, 0x75, 0x65, 0x6E, 0x74, 0x69,
  0x61, 0x6C, 0x2F, 0x63, 0x6F, 0x6E, 0x76, 0x32, 0x64, 0x5F,
  0x33, 0x2F, 0x43, 0x6F, 0x6E, 0x76, 0x32, 0x44, 0x31, 0x00,
  0x9C, 0xCD, 0xFF, 0xFF, 0xAE, 0xCE, 0xFF, 0xFF, 0x04, 0x00,
  0x00, 0x00, 0x40, 0x00, 0x00, 0x00, 0x00, 0x00, 0x00, 0x00,
  0x00, 0x00, 0x00, 0x00, 0x00, 0x00, 0x00, 0x00, 0x00, 0x00,
  0x00, 0x00, 0x00, 0x00, 0x00, 0x00, 0x00, 0x00, 0x00, 0x00,
  0x00, 0x00, 0x00, 0x00, 0x00, 0x00, 0x00, 0x00, 0x00, 0x00,
  0x00, 0x00, 0x00, 0x00, 0x00, 0x00, 0x00, 0x00, 0x00, 0x00,
  0x00, 0x00, 0x00, 0x00, 0x00, 0x00, 0x00, 0x00, 0x00, 0x00,
  0x00, 0x00, 0x00, 0x00, 0x00, 0x00, 0x00, 0x00, 0x00, 0x00,
  0xBE, 0xCE, 0xFF, 0xFF, 0x10, 0x00, 0x00, 0x00, 0x0B, 0x00,
  0x00, 0x00, 0x10, 0x00, 0x00, 0x00, 0x2C, 0x00, 0x00, 0x00,
  0x01, 0x00, 0x00, 0x00, 0x10, 0x00, 0x00, 0x00, 0x1A, 0x00,
  0x00, 0x00, 0x73, 0x65, 0x71, 0x75, 0x65, 0x6E, 0x74, 0x69,
  0x61, 0x6C, 0x2F, 0x63, 0x6F, 0x6E, 0x76, 0x32, 0x64, 0x5F,
  0x33, 0x2F, 0x43, 0x6F, 0x6E, 0x76, 0x32, 0x44, 0x00, 0x00,
  0x28, 0xCE, 0xFF, 0xFF, 0x3A, 0xCF, 0xFF, 0xFF, 0x04, 0x00,
  0x00, 0x00, 0x80, 0x04, 0x00, 0x00, 0x92, 0x68, 0xD1, 0x3D,
  0x41, 0x06, 0x18, 0x3E, 0xA9, 0x69, 0x0B, 0xBE, 0xB6, 0xAF,
  0x14, 0x3E, 0x35, 0x03, 0x8F, 0x3D, 0x2C, 0x54, 0x1A, 0x3E,
  0x40, 0x25, 0x5E, 0xBD, 0x73, 0x33, 0xC4, 0x3D, 0x33, 0xD8,
  0x83, 0x3D, 0x42, 0xB8, 0x0A, 0x3E, 0xA6, 0x27, 0xBF, 0xBD,
  0x47, 0x4B, 0xA6, 0x3D, 0x32, 0xDD, 0x40, 0xBD, 0x50, 0xA0,
  0xE9, 0x3D, 0xB8, 0xBA, 0x70, 0xBE, 0xFC, 0xE9, 0xE1, 0xBC,
  0x7F, 0xF6, 0x92, 0x3C, 0xD2, 0x59, 0x35, 0x3E, 0x33, 0xCE,
  0x0E, 0xBE, 0xB3, 0x49, 0xB5, 0xBD, 0xBD, 0xB2, 0x9F, 0x3D,
  0x53, 0x36, 0x2C, 0x3E, 0x47, 0xAA, 0x6B, 0xBE, 0xD5, 0xB1,
  0x4C, 0xBB, 0x0B, 0xF0, 0xB5, 0xBC, 0x85, 0xA2, 0xEA, 0xBB,
  0x7C, 0x18, 0x5B, 0xBE, 0x42, 0x3A, 0xB3, 0xBD, 0x99, 0xE7,
  0xC6, 0xBD, 0x33, 0x73, 0x70, 0xBB, 0xD7, 0xB0, 0x83, 0xBE,
  0xA0, 0xA9, 0x08, 0xBA, 0x68, 0xCB, 0xC4, 0xBB, 0x92, 0xA4,
  0x03, 0x3E, 0x26, 0x69, 0x15, 0xBE, 0x67, 0x37, 0x01, 0xBD,
  0x65, 0xCE, 0xBE, 0x3D, 0x29, 0xFB, 0x39, 0x3E, 0xA5, 0xE7,
  0x4A, 0x3C, 0xC8, 0xD4, 0x81, 0x3D, 0x6F, 0xE4, 0x03, 0x3E,
  0xFE, 0x6F, 0xFD, 0x3D, 0x36, 0x4F, 0xAB, 0xBD, 0x28, 0x74,
  0x0B, 0x3C, 0x8F, 0x53, 0x1F, 0x3E, 0xAF, 0x0F, 0x55, 0x3E,
  0x80, 0x68, 0xAD, 0xBD, 0x65, 0x92, 0xE6, 0x3D, 0x4E, 0x03,
  0x66, 0xBD, 0x2D, 0x19, 0xF5, 0x3D, 0xE2, 0x31, 0x17, 0xBD,
  0xEA, 0xD6, 0xB6, 0xBB, 0x96, 0x15, 0xC9, 0x3C, 0x42, 0xBB,
  0x92, 0x3D, 0xBC, 0x61, 0x1A, 0x3D, 0x9C, 0xAA, 0x48, 0xBE,
  0x12, 0xCD, 0x83, 0x3D, 0x7A, 0xA4, 0xC1, 0x3D, 0xD3, 0x52,
  0x62, 0x3A, 0x4B, 0x50, 0xB8, 0xBC, 0xDA, 0x7B, 0x09, 0xBD,
  0x8B, 0xE9, 0x03, 0xBD, 0x82, 0xAD, 0x22, 0xBE, 0xCD, 0x94,
  0x68, 0xBD, 0xA5, 0x79, 0x24, 0xBD, 0x85, 0x82, 0xF9, 0xBD,
  0xEC, 0x6D, 0x2C, 0xBE, 0x67, 0x7D, 0xFB, 0xBB, 0x43, 0x3C,
  0x04, 0xBE, 0xE0, 0x80, 0x14, 0xBD, 0x54, 0x9F, 0x30, 0xBE,
  0x47, 0x0E, 0x00, 0x3D, 0x2F, 0x76, 0x3C, 0x3E, 0x3E, 0xB2,
  0xFB, 0x3D, 0xFC, 0x97, 0x39, 0x3E, 0xC0, 0xE1, 0x63, 0x3E,
  0x7C, 0xEB, 0xBE, 0x3D, 0xBC, 0xAF, 0xE9, 0x3D, 0xC8, 0xBB,
  0x42, 0x3E, 0xDC, 0xB4, 0x2C, 0x3D, 0x46, 0xF1, 0xAE, 0xBD,
  0xB4, 0x67, 0x18, 0xBD, 0x8F, 0xE1, 0x16, 0x3D, 0x6C, 0xE9,
  0x54, 0xBB, 0xB5, 0xC2, 0x24, 0x3D, 0x65, 0x5A, 0xC1, 0x3C,
  0x0A, 0xA8, 0x82, 0x3E, 0x70, 0xDC, 0x6A, 0x3D, 0x7E, 0x41,
  0x45, 0x3D, 0x2F, 0x8E, 0x3A, 0xBD, 0x88, 0xA7, 0xF7, 0x3D,
  0xF1, 0x06, 0xF5, 0xBB, 0xB8, 0xCF, 0x1F, 0xBE, 0x1C, 0x33,
  0xF0, 0xBD, 0xC1, 0x7C, 0xD8, 0xBD, 0xA9, 0x49, 0xFE, 0xBD,
  0x30, 0x3D, 0x14, 0x3E, 0x02, 0x08, 0x9E, 0x3C, 0x7E, 0xB3,
  0xC7, 0x3E, 0x78, 0xE4, 0xFC, 0x3D, 0x34, 0xCE, 0x8F, 0xBD,
  0x37, 0x54, 0xF4, 0xBD, 0xBC, 0xE3, 0xF2, 0x3D, 0x0E, 0xBC,
  0x41, 0xBD, 0xCD, 0x52, 0x17, 0xBE, 0x48, 0xBD, 0x28, 0xBE,
  0x04, 0x3F, 0x84, 0xBE, 0x7A, 0xA2, 0x27, 0xBE, 0xD7, 0xA0,
  0x1D, 0x3E, 0xBE, 0xAB, 0x14, 0xBE, 0x31, 0xA3, 0x76, 0x3E,
  0xE2, 0xCF, 0x33, 0x3D, 0xE7, 0xF8, 0x7A, 0x3D, 0xC0, 0x3E,
  0x26, 0xBE, 0xE7, 0xFA, 0xDB, 0x3D, 0x63, 0x89, 0x05, 0x3E,
  0x5C, 0x74, 0x92, 0x3E, 0x0A, 0xF5, 0x5B, 0xBD, 0x75, 0xD5,
  0x64, 0xBE, 0x04, 0x76, 0x75, 0x3E, 0xC1, 0x19, 0xD0, 0x3D,
  0xB3, 0xEA, 0x8B, 0x3D, 0xD1, 0x95, 0xB9, 0x3E, 0xFA, 0xD6,
  0x1A, 0x3E, 0xD1, 0xB9, 0x82, 0x3D, 0xB7, 0xA2, 0x50, 0x3D,
  0x25, 0xB0, 0x05, 0x3E, 0x75, 0x67, 0x04, 0x3E, 0x3A, 0x71,
  0xC2, 0x3D, 0xF5, 0x42, 0x13, 0x3E, 0x8F, 0x89, 0x65, 0xBD,
  0x5C, 0x04, 0x23, 0x3E, 0x27, 0x74, 0x69, 0x3E, 0x3D, 0x2E,
  0x24, 0x3E, 0x60, 0x29, 0x05, 0x3E, 0x1F, 0x2B, 0x19, 0x3E,
  0x81, 0xC6, 0xFB, 0x3D, 0xEB, 0x7E, 0x38, 0x3E, 0xFD, 0x64,
  0x20, 0x3C, 0xEC, 0x29, 0x3C, 0x3D, 0x69, 0x6E, 0xC6, 0x3D,
  0x07, 0x94, 0x69, 0x3E, 0x85, 0xE3, 0x5E, 0xBE, 0xF9, 0x34,
  0x06, 0x3E, 0x68, 0xE7, 0x84, 0x3E, 0x9B, 0x00, 0xD6, 0x3D,
  0x26, 0x8E, 0x9E, 0xBD, 0x4D, 0x1A, 0x0E, 0x3E, 0x9A, 0x1E,
  0xA0, 0x3D, 0xFD, 0x5B, 0x00, 0x3E, 0x84, 0x80, 0x41, 0xBD,
  0xC0, 0x14, 0xDA, 0x3D, 0x5B, 0x01, 0x79, 0x3E, 0x1C, 0x1F,
  0x6A, 0x3E, 0x3B, 0x28, 0x65, 0xBE, 0x09, 0x6E, 0x1B, 0x3E,
  0xB8, 0x0C, 0xFC, 0x3C, 0x46, 0x77, 0x31, 0x3D, 0xDA, 0x64,
  0xD0, 0xBC, 0xBE, 0x56, 0xC4, 0xBD, 0x2E, 0x95, 0xA0, 0x3C,
  0x2F, 0xBA, 0x07, 0x3E, 0x99, 0x97, 0x81, 0xBD, 0x71, 0xC5,
  0x0B, 0xBE, 0xA3, 0x06, 0x25, 0x3C, 0x9A, 0x4D, 0xC1, 0x3D,
  0x30, 0xD1, 0x0E, 0xBE, 0x4E, 0x15, 0xA3, 0x3A, 0x43, 0xE3,
  0x13, 0xBE, 0x7F, 0x1D, 0xF1, 0xBC, 0xE0, 0xF5, 0x2E, 0xBE,
  0x30, 0x9F, 0x48, 0x3C, 0xF1, 0x79, 0x60, 0xBC, 0x9D, 0x35,
  0xA9, 0x3D, 0x10, 0xF2, 0x0D, 0xBE, 0x43, 0xED, 0xDD, 0xBD,
  0x60, 0x4F, 0xA6, 0xBD, 0x33, 0xB8, 0x44, 0x3C, 0xA1, 0x39,
  0x38, 0xBE, 0x7D, 0xCF, 0x86, 0xBC, 0x73, 0x19, 0x6F, 0xBD,
  0xDB, 0x52, 0xE3, 0xBD, 0x10, 0x74, 0x72, 0x3D, 0xC1, 0xD8,
  0x97, 0x3D, 0xEB, 0xA8, 0x28, 0xBD, 0xB9, 0xB1, 0x96, 0xBE,
  0x5A, 0xC0, 0xF3, 0x3C, 0x39, 0xAA, 0x87, 0x3D, 0x4C, 0x80,
  0xB8, 0xBC, 0xE5, 0xE1, 0x43, 0xBE, 0xE6, 0x9E, 0x99, 0xBE,
  0x87, 0x55, 0x19, 0xBD, 0x20, 0x8C, 0x29, 0x3E, 0x63, 0x3B,
  0x8F, 0x3D, 0x12, 0x47, 0x2F, 0xBE, 0x23, 0x09, 0xCF, 0x3D,
  0x76, 0xA2, 0xDB, 0x3D, 0x2B, 0xD2, 0x39, 0x3E, 0xC0, 0xDA,
  0x30, 0xBD, 0x37, 0x6A, 0xC0, 0x3D, 0xE0, 0x3D, 0x7E, 0x3D,
  0x86, 0xE9, 0x5A, 0x3E, 0xA8, 0xD8, 0xF5, 0xBD, 0xC9, 0x47,
  0x1F, 0x3E, 0xC9, 0xCC, 0x0F, 0xBE, 0xA7, 0x21, 0xB0, 0x3D,
  0xCF, 0x4D, 0xDC, 0xBD, 0x23, 0x49, 0x41, 0xBE, 0x27, 0xAA,
  0x01, 0xBD, 0xD3, 0xCB, 0x30, 0x3E, 0xE3, 0x2B, 0xAC, 0xBD,
  0x8E, 0x97, 0xF4, 0xBD, 0x11, 0x13, 0x74, 0xBD, 0x60, 0x1C,
  0x16, 0x3E, 0xF3, 0xA2, 0x9A, 0xBE, 0x35, 0xD5, 0x25, 0xBE,
  0xF4, 0x68, 0x3B, 0x3E, 0x50, 0xAB, 0xDF, 0x3C, 0x25, 0x08,
  0x80, 0x3E, 0x28, 0x27, 0x44, 0x3E, 0x21, 0x17, 0x00, 0x3E,
  0x5E, 0xE9, 0x6B, 0x3D, 0x0C, 0xA2, 0x65, 0x3E, 0x70, 0xE9,
  0x1C, 0x3E, 0xEC, 0x98, 0x3B, 0x3E, 0x65, 0x20, 0x30, 0x3E,
  0xD5, 0xC0, 0x1A, 0x3E, 0x62, 0x63, 0x10, 0x3E, 0x5C, 0xF3,
  0x7A, 0x3E, 0x8C, 0xCD, 0x00, 0x3E, 0x05, 0x7E, 0xFF, 0x3E,
  0x8B, 0xCE, 0xD2, 0x3D, 0xA6, 0x0D, 0xB6, 0xBC, 0xDC, 0xF7,
  0x00, 0x3C, 0x1F, 0xE0, 0x9B, 0x3E, 0x40, 0xE8, 0x45, 0x3D,
  0x95, 0xEA, 0x52, 0x3E, 0xCB, 0x6D, 0x3D, 0x3E, 0xAC, 0xE6,
  0xD0, 0x3D, 0x91, 0x57, 0x88, 0x3D, 0x0C, 0x46, 0xC6, 0x3D,
  0x65, 0x08, 0x10, 0x3E, 0xA2, 0x85, 0x73, 0x3E, 0x38, 0x34,
  0xBB, 0x3D, 0xCA, 0xD4, 0xD1, 0x3C, 0x4A, 0xA5, 0xCC, 0x3D,
  0xDF, 0x29, 0x0E, 0x3E, 0x7A, 0x26, 0x18, 0x3C, 0xBA, 0xED,
  0x03, 0x3E, 0x09, 0x5D, 0xED, 0x3D, 0xA9, 0x93, 0x70, 0xBD,
  0x5E, 0x36, 0xAB, 0x3D, 0xE6, 0x7D, 0x4F, 0x3D, 0x60, 0xA7,
  0xD8, 0xBD, 0x68, 0x0F, 0x93, 0x3D, 0x3A, 0xF5, 0x08, 0x3E,
  0x00, 0x8E, 0x25, 0x3E, 0x67, 0x15, 0x24, 0xBE, 0xA7, 0x0A,
  0x09, 0x3C, 0x03, 0xEE, 0x0D, 0x3E, 0x3E, 0xEC, 0x69, 0x3E,
  0x56, 0x15, 0xB2, 0x3C, 0x08, 0x9C, 0x89, 0xBD, 0x2D, 0xCF,
  0x8A, 0x3E, 0xAA, 0x6F, 0x09, 0x3E, 0xBA, 0x70, 0x56, 0x3D,
  0x86, 0xC1, 0x60, 0x3D, 0x9D, 0x46, 0xDF, 0x3D, 0x05, 0xA3,
  0xFD, 0x3D, 0xC0, 0x51, 0x2C, 0x3E, 0xBB, 0x9E, 0x59, 0x3E,
  0xD4, 0x2E, 0x17, 0x3E, 0x02, 0x21, 0x05, 0x3E, 0x90, 0x61,
  0x69, 0x3E, 0x4B, 0xB6, 0x43, 0xBC, 0x67, 0x0D, 0x02, 0x3E,
  0x27, 0x55, 0xC6, 0x3D, 0xC2, 0x7D, 0x2F, 0x3E, 0xA7, 0xB6,
  0xCF, 0x3D, 0xB8, 0xF2, 0x9A, 0x3C, 0x82, 0xA5, 0xF6, 0xBC,
  0x99, 0xE8, 0x58, 0x3E, 0xAF, 0x1D, 0xE2, 0x38, 0x14, 0xB6,
  0x9C, 0x3D, 0x46, 0x7E, 0x83, 0x3D, 0x1E, 0x22, 0x66, 0x3E,
  0x97, 0x6A, 0x3F, 0xBE, 0xFF, 0xDA, 0x54, 0x3C, 0x8A, 0xD3,
  0xFF, 0xFF, 0x10, 0x00, 0x00, 0x00, 0x0A, 0x00, 0x00, 0x00,
  0x1C, 0x00, 0x00, 0x00, 0x38, 0x00, 0x00, 0x00, 0x04, 0x00,
  0x00, 0x00, 0x08, 0x00, 0x00, 0x00, 0x03, 0x00, 0x00, 0x00,
  0x03, 0x00, 0x00, 0x00, 0x04, 0x00, 0x00, 0x00, 0x1B, 0x00,
  0x00, 0x00, 0x73, 0x65, 0x71, 0x75, 0x65, 0x6E, 0x74, 0x69,
  0x61, 0x6C, 0x2F, 0x63, 0x6F, 0x6E, 0x76, 0x32, 0x64, 0x5F,
  0x32, 0x2F, 0x43, 0x6F, 0x6E, 0x76, 0x32, 0x44, 0x31, 0x00,
  0x00, 0xD3, 0xFF, 0xFF, 0x12, 0xD4, 0xFF, 0xFF, 0x04, 0x00,
  0x00, 0x00, 0x20, 0x00, 0x00, 0x00, 0x00, 0x00, 0x00, 0x00,
  0x00, 0x00, 0x00, 0x00, 0x00, 0x00, 0x00, 0x00, 0x00, 0x00,
  0x00, 0x00, 0x00, 0x00, 0x00, 0x00, 0x00, 0x00, 0x00, 0x00,
  0x00, 0x00, 0x00, 0x00, 0x00, 0x00, 0x00, 0x00, 0x02, 0xD4,
  0xFF, 0xFF, 0x10, 0x00, 0x00, 0x00, 0x09, 0x00, 0x00, 0x00,
  0x10, 0x00, 0x00, 0x00, 0x2C, 0x00, 0x00, 0x00, 0x01, 0x00,
  0x00, 0x00, 0x08, 0x00, 0x00, 0x00, 0x1A, 0x00, 0x00, 0x00,
  0x73, 0x65, 0x71, 0x75, 0x65, 0x6E, 0x74, 0x69, 0x61, 0x6C,
  0x2F, 0x63, 0x6F, 0x6E, 0x76, 0x32, 0x64, 0x5F, 0x32, 0x2F,
  0x43, 0x6F, 0x6E, 0x76, 0x32, 0x44, 0x00, 0x00, 0x6C, 0xD3,
  0xFF, 0xFF, 0x7E, 0xD4, 0xFF, 0xFF, 0x04, 0x00, 0x00, 0x00,
  0x20, 0x01, 0x00, 0x00, 0xBF, 0x37, 0x90, 0x3E, 0xFF, 0xDC,
  0xF3, 0x3E, 0x56, 0xA3, 0x90, 0x3E, 0x5B, 0x24, 0x87, 0x3E,
  0x34, 0x42, 0x8F, 0x3E, 0x4F, 0xCC, 0x6E, 0x3E, 0x5D, 0xC7,
  0x95, 0x3E, 0x4A, 0x15, 0x94, 0x3E, 0x4F, 0x64, 0x64, 0x3E,
  0xCF, 0x93, 0x83, 0x3E, 0x36, 0x31, 0xB1, 0x3E, 0xC3, 0xF9,
  0x9D, 0x3E, 0x47, 0x11, 0x4D, 0x3E, 0x7F, 0xE7, 0x4D, 0x3E,
  0x81, 0x7C, 0x5E, 0x3E, 0x2B, 0x14, 0x7F, 0x3E, 0xF3, 0xE2,
  0x8E, 0x3E, 0xE3, 0x31, 0xE3, 0x3E, 0x5D, 0x91, 0x37, 0x3E,
  0x66, 0x6E, 0xC2, 0x3D, 0x7D, 0xFA, 0x79, 0x3E, 0x2D, 0x17,
  0x1D, 0x3E, 0x21, 0x41, 0x91, 0x3E, 0xF7, 0xA8, 0x95, 0x3E,
  0x85, 0xF8, 0xD5, 0x3D, 0xD3, 0x63, 0x1D, 0x3E, 0xE0, 0xD1,
  0x06, 0x3E, 0x43, 0xD6, 0x2B, 0x3E, 0xA6, 0x91, 0xD8, 0x3D,
  0x74, 0xB3, 0xA9, 0x3D, 0xDA, 0x25, 0x16, 0xBE, 0x77, 0x29,
  0xC1, 0xBC, 0x50, 0x54, 0x58, 0xBE, 0xB8, 0x80, 0x0B, 0xBD,
  0x2B, 0x1C, 0x66, 0xBD, 0xF2, 0xFC, 0x36, 0x3C, 0x75, 0xEA,
  0xEC, 0x3D, 0x29, 0x39, 0xE7, 0x3D, 0x7F, 0x4B, 0xCE, 0xBC,
  0xA1, 0xBE, 0x45, 0x3D, 0xD0, 0x4F, 0x2A, 0xBE, 0xF7, 0x18,
  0xE2, 0xBD, 0x01, 0xC3, 0x28, 0x3E, 0x63, 0x46, 0x82, 0x3D,
  0xBB, 0x8A, 0xED, 0xBB, 0xC4, 0xD1, 0x72, 0xBA, 0x6D, 0x6B,
  0x08, 0xBE, 0x33, 0x0F, 0xD7, 0xBD, 0xEF, 0x63, 0x33, 0x3E,
  0x38, 0x38, 0xEA, 0x3D, 0xB5, 0x1E, 0x6B, 0xBC, 0xEB, 0x04,
  0xEF, 0x3C, 0xB8, 0x67, 0x73, 0xBE, 0xEF, 0x57, 0x08, 0xBE,
  0x6C, 0x06, 0x82, 0x3E, 0xD5, 0x9F, 0x1B, 0x3E, 0x36, 0x95,
  0x59, 0x3D, 0x4F, 0x8B, 0x7A, 0x3D, 0x04, 0x5F, 0x16, 0x3E,
  0x2A, 0x24, 0xCA, 0xBC, 0x01, 0xDE, 0x3B, 0x3E, 0x59, 0xDB,
  0x80, 0x3E, 0x5F, 0x05, 0x60, 0x3E, 0xEF, 0x05, 0x93, 0x3E,
  0x63, 0xA9, 0x19, 0x3E, 0x88, 0x04, 0xF8, 0x3D, 0xDF, 0x61,
  0x8F, 0x3E, 0x22, 0xA2, 0x43, 0x3E, 0x84, 0x9A, 0x8E, 0x3E,
  0xA0, 0x3C, 0x7C, 0x3E, 0x32, 0x87, 0xCF, 0x3E, 0x05, 0x75,
  0x9C, 0x3E, 0x6E, 0xD5, 0xFF, 0xFF, 0x10, 0x00, 0x00, 0x00,
  0x08, 0x00, 0x00, 0x00, 0x1C, 0x00, 0x00, 0x00, 0x38, 0x00,
  0x00, 0x00, 0x04, 0x00, 0x00, 0x00, 0x04, 0x00, 0x00, 0x00,
  0x03, 0x00, 0x00, 0x00, 0x03, 0x00, 0x00, 0x00, 0x02, 0x00,
  0x00, 0x00, 0x1B, 0x00, 0x00, 0x00, 0x73, 0x65, 0x71, 0x75,
  0x65, 0x6E, 0x74, 0x69, 0x61, 0x6C, 0x2F, 0x63, 0x6F, 0x6E,
  0x76, 0x32, 0x64, 0x5F, 0x31, 0x2F, 0x43, 0x6F, 0x6E, 0x76,
  0x32, 0x44, 0x31, 0x00, 0xE4, 0xD4, 0xFF, 0xFF, 0xF6, 0xD5,
  0xFF, 0xFF, 0x04, 0x00, 0x00, 0x00, 0x10, 0x00, 0x00, 0x00,
  0x00, 0x00, 0x00, 0x00, 0x00, 0x00, 0x00, 0x00, 0x00, 0x00,
  0x00, 0x00, 0x00, 0x00, 0x00, 0x00, 0xD6, 0xD5, 0xFF, 0xFF,
  0x10, 0x00, 0x00, 0x00, 0x07, 0x00, 0x00, 0x00, 0x10, 0x00,
  0x00, 0x00, 0x2C, 0x00, 0x00, 0x00, 0x01, 0x00, 0x00, 0x00,
  0x04, 0x00, 0x00, 0x00, 0x1A, 0x00, 0x00, 0x00, 0x73, 0x65,
  0x71, 0x75, 0x65, 0x6E, 0x74, 0x69, 0x61, 0x6C, 0x2F, 0x63,
  0x6F, 0x6E, 0x76, 0x32, 0x64, 0x5F, 0x31, 0x2F, 0x43, 0x6F,
  0x6E, 0x76, 0x32, 0x44, 0x00, 0x00, 0x40, 0xD5, 0xFF, 0xFF,
  0x52, 0xD6, 0xFF, 0xFF, 0x04, 0x00, 0x00, 0x00, 0x48, 0x00,
  0x00, 0x00, 0x6B, 0x1C, 0xC2, 0x3E, 0x66, 0xE7, 0xCC, 0x3E,
  0xDB, 0xEE, 0x1F, 0x3F, 0xFD, 0xFA, 0xC3, 0x3E, 0xC4, 0x12,
  0xCF, 0x3E, 0x36, 0x73, 0xD3, 0x3E, 0x70, 0x58, 0xA3, 0x3E,
  0x82, 0x04, 0x98, 0x3E, 0xBB, 0x97, 0xB8, 0x3E, 0x55, 0xD8,
  0xCB, 0x3E, 0x74, 0x33, 0x03, 0x3F, 0xF7, 0x18, 0xBA, 0x3E,
  0xDA, 0xE5, 0x90, 0x3E, 0xF0, 0x0F, 0xB5, 0x3E, 0xF5, 0xFF,
  0x94, 0x3E, 0x1A, 0x5B, 0xA3, 0x3D, 0xB6, 0x31, 0xE1, 0x3D,
  0xA9, 0x5C, 0x9B, 0x3E, 0x6A, 0xD6, 0xFF, 0xFF, 0x10, 0x00,
  0x00, 0x00, 0x06, 0x00, 0x00, 0x00, 0x1C, 0x00, 0x00, 0x00,
  0x38, 0x00, 0x00, 0x00, 0x04, 0x00, 0x00, 0x00, 0x02, 0x00,
  0x00, 0x00, 0x03, 0x00, 0x00, 0x00, 0x03, 0x00, 0x00, 0x00,
  0x01, 0x00, 0x00, 0x00, 0x19, 0x00, 0x00, 0x00, 0x73, 0x65,
  0x71, 0x75, 0x65, 0x6E, 0x74, 0x69, 0x61, 0x6C, 0x2F, 0x63,
  0x6F, 0x6E, 0x76, 0x32, 0x64, 0x2F, 0x43, 0x6F, 0x6E, 0x76,
  0x32, 0x44, 0x31, 0x00, 0x00, 0x00, 0xE0, 0xD5, 0xFF, 0xFF,
  0xF2, 0xD6, 0xFF, 0xFF, 0x04, 0x00, 0x00, 0x00, 0x08, 0x00,
  0x00, 0x00, 0x00, 0x00, 0x00, 0x00, 0x00, 0x00, 0x00, 0x00,
  0xCA, 0xD6, 0xFF, 0xFF, 0x10, 0x00, 0x00, 0x00, 0x05, 0x00,
  0x00, 0x00, 0x10, 0x00, 0x00, 0x00, 0x2C, 0x00, 0x00, 0x00,
  0x01, 0x00, 0x00, 0x00, 0x02, 0x00, 0x00, 0x00, 0x18, 0x00,
  0x00, 0x00, 0x73, 0x65, 0x71, 0x75, 0x65, 0x6E, 0x74, 0x69,
  0x61, 0x6C, 0x2F, 0x63, 0x6F, 0x6E, 0x76, 0x32, 0x64, 0x2F,
  0x43, 0x6F, 0x6E, 0x76, 0x32, 0x44, 0x00, 0x00, 0x00, 0x00,
  0x34, 0xD6, 0xFF, 0xFF, 0x46, 0xD7, 0xFF, 0xFF, 0x04, 0x00,
  0x00, 0x00, 0x00, 0x28, 0x00, 0x00, 0xC6, 0x7C, 0x7F, 0xBB,
  0x7F, 0x57, 0xDF, 0xBD, 0x4C, 0x0D, 0x8A, 0x3D, 0x08, 0x49,
  0xA1, 0xBD, 0x32, 0x0A, 0x72, 0xBD, 0x51, 0xE9, 0x04, 0x3D,
  0xAD, 0xA2, 0x89, 0x3D, 0xC5, 0xD1, 0xAB, 0x3C, 0x3E, 0x9A,
  0x25, 0x3D, 0x16, 0x71, 0x6B, 0xBC, 0x94, 0x2E, 0x1B, 0x3C,
  0x52, 0x97, 0x03, 0xBD, 0xDC, 0xE5, 0xCA, 0xBD, 0xC1, 0xD9,
  0x43, 0x3C, 0x48, 0x52, 0x5F, 0xBD, 0x38, 0x7A, 0x82, 0x3D,
  0x8F, 0x2F, 0x26, 0x3D, 0xCC, 0xE2, 0xD6, 0xBC, 0x0F, 0x85,
  0x06, 0x3E, 0x4D, 0x12, 0x08, 0xBE, 0xCE, 0x10, 0xC5, 0xBC,
  0xC7, 0x0B, 0xDF, 0x3D, 0x5E, 0x54, 0xD5, 0x3D, 0x3E, 0x46,
  0xD8, 0xBD, 0xA1, 0x98, 0x92, 0xBD, 0xF9, 0x1C, 0x19, 0x3D,
  0xA0, 0x02, 0xAF, 0xBD, 0x1C, 0x2D, 0x6F, 0xBB, 0xB3, 0x80,
  0xEA, 0xBD, 0xB4, 0xDD, 0x91, 0xBC, 0xC1, 0xF5, 0x82, 0x3D,
  0xEA, 0xC9, 0xD9, 0x3C, 0x34, 0xE6, 0x1C, 0x3D, 0xB5, 0xC4,
  0x8D, 0xBC, 0x08, 0xEF, 0xDA, 0x3D, 0x06, 0x49, 0x6C, 0xBD,
  0xE4, 0xCE, 0x05, 0x3E, 0xBB, 0x47, 0x92, 0x3C, 0x1E, 0x08,
  0xC4, 0x3C, 0x2A, 0xB5, 0x12, 0xBD, 0x64, 0xCF, 0x09, 0xBB,
  0xC5, 0xDB, 0x65, 0x3D, 0x9A, 0xD2, 0x96, 0x3B, 0x8A, 0xAB,
  0x74, 0x3D, 0x51, 0x59, 0x21, 0xBC, 0xF1, 0x7A, 0x43, 0x3C,
  0x27, 0xCC, 0x8D, 0x3D, 0xA1, 0x98, 0x23, 0xBD, 0xEE, 0xC5,
  0x88, 0xBC, 0x2A, 0x17, 0xF7, 0x3D, 0x21, 0xE2, 0x86, 0x3D,
  0x92, 0xC2, 0x92, 0xBC, 0x99, 0x7C, 0x0E, 0x3D, 0x38, 0x8A,
  0xA8, 0xBD, 0x20, 0x3D, 0xCA, 0x3C, 0x9A, 0xE7, 0xBA, 0xBD,
  0x20, 0xF6, 0x10, 0x3D, 0xA8, 0x4F, 0xB8, 0x3D, 0x93, 0xDF,
  0x6F, 0x3D, 0x5C, 0x7C, 0x9C, 0x3C, 0x38, 0xDD, 0x5C, 0xBD,
  0x3B, 0x8F, 0xAF, 0x3D, 0x45, 0xC2, 0xBD, 0x3D, 0x39, 0xA9,
  0xB7, 0xBD, 0x94, 0x31, 0xF5, 0xBD, 0x2A, 0x7D, 0x48, 0xBD,
  0x2F, 0x49, 0xA5, 0x3D, 0xD1, 0xCA, 0xF3, 0xBC, 0x11, 0x06,
  0x62, 0xBD, 0x2C, 0x90, 0xA5, 0x3D, 0x21, 0xBF, 0xED, 0x3D,
  0x54, 0x16, 0x02, 0xBD, 0x56, 0x16, 0x3D, 0xBD, 0x78, 0x53,
  0x1F, 0xBE, 0x06, 0x55, 0x35, 0xBD, 0x4E, 0x3D, 0x35, 0xBC,
  0xA2, 0x16, 0x20, 0x3E, 0x0C, 0xC2, 0x9B, 0x3C, 0x57, 0x0A,
  0xEE, 0x3C, 0x9F, 0x30, 0xDC, 0xBC, 0xFF, 0x23, 0x18, 0x3C,
  0x04, 0x94, 0x11, 0xBC, 0x36, 0xCD, 0x2B, 0x3D, 0x46, 0x77,
  0x2E, 0xBD, 0xFC, 0x7E, 0xBA, 0x3D, 0x03, 0x55, 0x84, 0x3D,
  0x67, 0x39, 0xE6, 0x3D, 0x77, 0x99, 0x18, 0xBD, 0xF6, 0x58,
  0x3A, 0x39, 0xDA, 0x08, 0x27, 0xBC, 0x17, 0xAF, 0x2C, 0xBD,
  0x5F, 0x68, 0xBF, 0xBD, 0xDD, 0x7F, 0x68, 0xBD, 0x9E, 0x54,
  0xF4, 0x3A, 0xCA, 0xC1, 0x1A, 0xBD, 0x16, 0x91, 0x82, 0x3D,
  0x65, 0x47, 0x6C, 0x3D, 0x10, 0x1B, 0xAB, 0xBC, 0x23, 0x43,
  0x46, 0x3D, 0x88, 0xA4, 0xF5, 0xBD, 0x46, 0x41, 0x68, 0x3E,
  0x83, 0xDA, 0x8F, 0x3D, 0xEE, 0x46, 0x3F, 0xBC, 0x0A, 0x9D,
  0xF6, 0xBD, 0x3A, 0x51, 0x49, 0xBD, 0xF6, 0x98, 0x08, 0x3B,
  0x52, 0x83, 0xF9, 0xBD, 0x70, 0xBD, 0xD1, 0xBC, 0x37, 0xF9,
  0x2E, 0xBD, 0x2B, 0x28, 0x96, 0xBD, 0xB0, 0xEC, 0xD4, 0x3D,
  0xD7, 0x42, 0xBD, 0xBC, 0x9B, 0x79, 0x9C, 0xBD, 0x9A, 0x2C,
  0x8B, 0x3C, 0x3B, 0x53, 0xAA, 0x3D, 0x03, 0xCB, 0xB6, 0x3C,
  0xBB, 0x3E, 0xE7, 0xBB, 0xA7, 0x59, 0xC7, 0xBC, 0x32, 0xF2,
  0xB1, 0xBC, 0x94, 0x79, 0x2B, 0xBC, 0x11, 0xC3, 0x02, 0x3C,
  0xE5, 0x88, 0x98, 0x3D, 0xF2, 0x7F, 0xC8, 0xBD, 0x4B, 0x76,
  0x94, 0xBC, 0x09, 0x9C, 0x96, 0xBB, 0xE5, 0xC3, 0x19, 0x3D,
  0xD0, 0x1A, 0xC1, 0x3C, 0x1E, 0xAA, 0x15, 0xBE, 0x45, 0xBF,
  0x0A, 0xBE, 0x65, 0xD8, 0x64, 0xBD, 0x61, 0xE1, 0x17, 0x3E,
  0x6E, 0x48, 0xD3, 0xBC, 0xFD, 0x3F, 0x02, 0xBD, 0x81, 0x28,
  0x6E, 0x3D, 0x70, 0x76, 0x76, 0x3D, 0x4D, 0xA0, 0x6A, 0xBD,
  0x09, 0xE7, 0xA0, 0xBD, 0xAC, 0x85, 0x40, 0xBE, 0xBD, 0x89,
  0x61, 0xBB, 0xE3, 0xAC, 0x58, 0xBD, 0x4D, 0x81, 0xAC, 0x3D,
  0x20, 0x9D, 0x61, 0xBD, 0x59, 0x5C, 0x93, 0x3C, 0xAF, 0xE7,
  0x81, 0xBD, 0x43, 0x78, 0xB9, 0xBD, 0x4B, 0x96, 0x65, 0x3D,
  0xAA, 0x78, 0xCA, 0x3D, 0x29, 0xD9, 0x97, 0xBC, 0x07, 0x7E,
  0x5A, 0xBD, 0x1C, 0x61, 0x06, 0x3D, 0x06, 0x62, 0xFA, 0x39,
  0x94, 0x82, 0x19, 0xBE, 0x81, 0x70, 0x22, 0x3D, 0x78, 0xA7,
  0x42, 0x3C, 0x77, 0x72, 0xC8, 0x3D, 0x41, 0xED, 0x47, 0xBB,
  0xAF, 0x3A, 0x1C, 0xBE, 0x23, 0x1B, 0x13, 0x3D, 0x29, 0xCE,
  0xA3, 0x3C, 0xF5, 0x31, 0xF8, 0xBA, 0xC0, 0x26, 0x04, 0xBD,
  0x2D, 0x89, 0x2B, 0x3C, 0x21, 0xB2, 0x9A, 0x3C, 0xE6, 0xAA,
  0xE5, 0xBD, 0x57, 0xC2, 0xAC, 0x3D, 0xFB, 0xE7, 0x85, 0x3D,
  0xDB, 0xEF, 0xAB, 0x3B, 0x70, 0x01, 0x2F, 0xBE, 0xFD, 0xAD,
  0x0C, 0x3D, 0x43, 0x3E, 0xB5, 0x3D, 0xE0, 0x85, 0xF2, 0x3D,
  0x49, 0xEF, 0x08, 0xBD, 0x3F, 0x15, 0xB3, 0xBD, 0x82, 0xE6,
  0x32, 0xBC, 0xDC, 0x98, 0x29, 0x3C, 0xE7, 0x26, 0x50, 0xBD,
  0x52, 0xED, 0xA1, 0xBD, 0xD9, 0xDD, 0x1C, 0xBC, 0x8B, 0xE6,
  0x4B, 0x3E, 0xC1, 0xCF, 0xD6, 0xBB, 0xAD, 0xFA, 0x3E, 0xBD,
  0x91, 0x69, 0x8B, 0x3C, 0xA9, 0x6C, 0xBB, 0xBD, 0x05, 0x44,
  0x22, 0x3D, 0xA2, 0x48, 0x30, 0xBB, 0x3F, 0xAE, 0x1C, 0x3C,
  0xF3, 0x75, 0x93, 0xBD, 0xC7, 0x79, 0x4E, 0x3E, 0xA3, 0xF9,
  0x22, 0xBC, 0xC7, 0xB5, 0xA7, 0x3D, 0xA3, 0xAA, 0x9A, 0xBA,
  0xB1, 0x65, 0xFE, 0xBC, 0x70, 0x1A, 0x1F, 0xBE, 0xEE, 0x65,
  0x84, 0x3C, 0xE1, 0x46, 0x28, 0xBD, 0x9B, 0xEE, 0xAF, 0x3C,
  0x86, 0xE7, 0x0D, 0x3C, 0xC0, 0xB6, 0xF9, 0x3D, 0x62, 0x08,
  0x5D, 0x3D, 0xB3, 0xB6, 0x8C, 0xBD, 0x58, 0xCA, 0x13, 0xBE,
  0xF6, 0x72, 0xE0, 0xBD, 0x30, 0x62, 0xB7, 0xBD, 0x67, 0x36,
  0xAE, 0x3D, 0xB1, 0xAA, 0xE4, 0x3D, 0xCC, 0xAC, 0x0F, 0x3E,
  0xF1, 0x2B, 0x39, 0x3E, 0x30, 0x64, 0xD1, 0xBC, 0xBD, 0x81,
  0x95, 0xBD, 0xB2, 0xA3, 0x0C, 0x3D, 0xED, 0x27, 0xA4, 0x3C,
  0x72, 0xD9, 0xD3, 0xBC, 0x50, 0xCF, 0x3E, 0xBD, 0xBA, 0x68,
  0x9B, 0xBD, 0xE6, 0xCF, 0x1B, 0x3D, 0x0C, 0x82, 0x9E, 0x3C,
  0xB9, 0xB0, 0xCB, 0x3C, 0x5A, 0x9A, 0x7F, 0x3D, 0x08, 0xF0,
  0xA6, 0xBD, 0xAE, 0x2E, 0x15, 0xBE, 0xEF, 0x13, 0xD9, 0xBD,
  0xC6, 0x99, 0xD0, 0xBB, 0xC1, 0x45, 0xBC, 0xBB, 0x92, 0x45,
  0xD7, 0x3B, 0xFB, 0x49, 0x3B, 0xBD, 0xE1, 0x23, 0xF4, 0xBD,
  0x12, 0x2A, 0xD3, 0x3D, 0xE2, 0x1F, 0xCE, 0xBD, 0xC5, 0x5D,
  0x4A, 0x3D, 0x50, 0x22, 0xB8, 0x3C, 0x5E, 0xA0, 0xED, 0x3D,
  0xB2, 0xFB, 0x8B, 0x3D, 0x18, 0xD1, 0x52, 0x3D, 0x5C, 0x02,
  0x75, 0xBD, 0x0F, 0xAF, 0xEF, 0xBC, 0xBF, 0x39, 0xB1, 0xBD,
  0x3E, 0x07, 0x7E, 0xBC, 0xFE, 0x89, 0x62, 0xBD, 0x13, 0xE1,
  0x23, 0xBD, 0x35, 0xF1, 0x00, 0x3E, 0x43, 0xA7, 0x67, 0xBD,
  0x83, 0x2C, 0x39, 0xBE, 0x58, 0x4F, 0x73, 0x3E, 0x4F, 0xCB,
  0x8A, 0x3C, 0x9E, 0xCF, 0x3B, 0x3C, 0x20, 0x03, 0x7E, 0xBD,
  0x66, 0x22, 0x34, 0x3D, 0xA3, 0x67, 0x49, 0x3E, 0xC4, 0x31,
  0x4E, 0x3E, 0x00, 0xD9, 0x88, 0x3D, 0x06, 0x86, 0xA8, 0x3B,
  0xB9, 0x30, 0x55, 0xBC, 0x11, 0x99, 0x45, 0xBD, 0xBD, 0x9A,
  0xD4, 0x3C, 0x12, 0x26, 0xFE, 0xBD, 0x7B, 0x55, 0x3F, 0xBD,
  0x65, 0x89, 0x25, 0xBD, 0x87, 0xA0, 0xD6, 0xBD, 0xE8, 0x0A,
  0x8B, 0x3D, 0x2B, 0xCC, 0x23, 0x3D, 0xDB, 0xA1, 0x29, 0xBD,
  0xB2, 0x93, 0xAA, 0xBC, 0x31, 0x28, 0x87, 0x3D, 0x10, 0x20,
  0x88, 0x3D, 0x8D, 0x02, 0x81, 0x3D, 0x04, 0x8C, 0xA4, 0x3D,
  0x02, 0x93, 0x77, 0x3D, 0xED, 0x02, 0x67, 0xBD, 0xE2, 0x17,
  0x25, 0xBD, 0x36, 0x07, 0x8D, 0xBD, 0x37, 0x3D, 0xCA, 0xBC,
  0x60, 0xD7, 0x7C, 0xBC, 0x20, 0xE7, 0xEE, 0x3C, 0xB5, 0x9E,
  0xBB, 0xBD, 0xC0, 0xC9, 0xBA, 0x3D, 0xEF, 0xB2, 0xE9, 0xBD,
  0xAD, 0x0D, 0xC7, 0xBC, 0x02, 0xB7, 0x2E, 0xBD, 0x47, 0x91,
  0x7B, 0xBD, 0xAE, 0xFF, 0xDE, 0xBD, 0x88, 0xD1, 0x07, 0xBD,
  0x9F, 0xF9, 0xB2, 0x3B, 0x44, 0x9C, 0x51, 0xBD, 0xDA, 0x3A,
  0xF9, 0x3C, 0x5C, 0x9C, 0x80, 0x3E, 0xEE, 0xCC, 0x91, 0x3D,
  0x78, 0x0B, 0x97, 0xBD, 0x8B, 0xAB, 0xE3, 0xBD, 0x07, 0xE4,
  0xA5, 0xBD, 0xEC, 0x81, 0x7C, 0x3D, 0xAB, 0x8C, 0x43, 0x3E,
  0xD2, 0x98, 0x24, 0x3D, 0x22, 0x0C, 0x98, 0xBD, 0xC2, 0x25,
  0x99, 0x3D, 0xC9, 0xDA, 0xB6, 0xBC, 0x63, 0x22, 0x8A, 0xBD,
  0x5C, 0x54, 0x0E, 0xBD, 0x6F, 0xAD, 0x48, 0xBC, 0xAB, 0x1A,
  0x08, 0x3D, 0x77, 0xB4, 0x80, 0xBD, 0x43, 0xC0, 0x99, 0x3D,
  0xA7, 0x90, 0x59, 0x3D, 0x54, 0x9D, 0x01, 0xBD, 0x55, 0x4E,
  0x12, 0xBE, 0x0F, 0x69, 0x9E, 0xBB, 0xF8, 0x79, 0x24, 0xBE,
  0xD3, 0xB4, 0xFE, 0x3D, 0xA4, 0xF3, 0xD7, 0x3C, 0xA8, 0x20,
  0x97, 0xBD, 0xFE, 0xF1, 0x6C, 0x3D, 0xC5, 0xAC, 0x00, 0xBD,
  0xBB, 0x80, 0x8E, 0x3B, 0xAC, 0x00, 0x6D, 0xBD, 0x5B, 0xBB,
  0x8D, 0xBD, 0x3A, 0x22, 0x90, 0xBE, 0xBF, 0x5C, 0x09, 0xBE,
  0xEF, 0x43, 0x0D, 0xBD, 0x7E, 0x5E, 0x0A, 0x3E, 0xB2, 0x8A,
  0xF0, 0xBD, 0xCF, 0x51, 0x7D, 0xBD, 0x49, 0x74, 0x92, 0xBD,
  0x41, 0x6D, 0xEE, 0xBC, 0x07, 0x2B, 0x66, 0x3D, 0x21, 0xA9,
  0x9B, 0x3D, 0x7B, 0x0E, 0xCB, 0xBB, 0x06, 0x7E, 0x9A, 0xBC,
  0xC0, 0xE4, 0xA7, 0xBD, 0x97, 0xAB, 0x0F, 0x3D, 0x1D, 0x7B,
  0x02, 0x3D, 0x45, 0xFF, 0x7A, 0x3D, 0x68, 0xB4, 0x62, 0x3C,
  0x6C, 0xCF, 0x36, 0xBD, 0x0E, 0xB4, 0x8C, 0xBE, 0x0A, 0xC4,
  0x2E, 0xBD, 0x5D, 0xA7, 0x43, 0xBD, 0x5A, 0x56, 0x8D, 0xBC,
  0xC9, 0x29, 0xED, 0xBD, 0x64, 0x1E, 0x1F, 0xBE, 0x86, 0xB9,
  0x14, 0x3E, 0x9A, 0x82, 0x3F, 0xBD, 0x27, 0xB5, 0xAF, 0xBC,
  0xB7, 0xF6, 0x49, 0x3D, 0x87, 0x1B, 0x99, 0xBC, 0x1F, 0xAC,
  0x4B, 0xBD, 0x02, 0x4C, 0x40, 0xBD, 0xDC, 0x66, 0xCA, 0x3D,
  0x5C, 0xC3, 0x80, 0x3D, 0x6C, 0x42, 0x72, 0xBD, 0xE6, 0x44,
  0x12, 0x3E, 0x8D, 0xB9, 0x32, 0xBD, 0xB6, 0xAE, 0x39, 0xBD,
  0xE3, 0x6B, 0x27, 0x3D, 0x62, 0x83, 0x20, 0xBD, 0xA4, 0xF7,
  0x3A, 0x3D, 0xE3, 0x15, 0x26, 0x3E, 0xB9, 0xBD, 0x33, 0x3D,
  0x3F, 0xF7, 0xA8, 0x3D, 0x9B, 0xBA, 0x25, 0x3E, 0xCC, 0x8F,
  0xB0, 0xBD, 0x79, 0xF4, 0x92, 0x3D, 0xD7, 0xED, 0x1B, 0xBD,
  0x5C, 0xA6, 0xF3, 0x3D, 0xFA, 0x4D, 0x9F, 0xBD, 0xC5, 0xE7,
  0x63, 0xBD, 0x80, 0xCC, 0x66, 0x3D, 0xDB, 0xF1, 0x1C, 0x3E,
  0x74, 0x85, 0x4B, 0xBD, 0xC1, 0x96, 0xA1, 0xBC, 0x18, 0xA5,
  0xB7, 0xBD, 0xEE, 0x42, 0x0C, 0xBE, 0x9E, 0x77, 0xF7, 0x3D,
  0x33, 0xCA, 0x87, 0x3D, 0xD7, 0x41, 0x94, 0x3A, 0x3E, 0xF7,
  0xCB, 0x3D, 0xFA, 0xC5, 0x0B, 0xBD, 0x22, 0xC2, 0xB7, 0xBD,
  0x0F, 0x9B, 0x57, 0xBD, 0xA9, 0x1E, 0x44, 0x3D, 0x8D, 0xB4,
  0x39, 0xBE, 0x8B, 0x34, 0xD4, 0x3C, 0xC6, 0x75, 0x99, 0xBC,
  0xBB, 0x01, 0x1F, 0xBD, 0x97, 0x2D, 0xA3, 0x3C, 0x94, 0xCB,
  0x34, 0xBD, 0x8E, 0xCF, 0x87, 0xBD, 0xFE, 0x03, 0x1E, 0xBD,
  0x43, 0x00, 0xCE, 0x3D, 0x80, 0x02, 0xB0, 0xBD, 0x2C, 0x5F,
  0xA6, 0x3C, 0xE6, 0xF4, 0x2E, 0xBD, 0xFF, 0x66, 0x0D, 0x3E,
  0x7D, 0xBC, 0xEC, 0xBC, 0x02, 0xD8, 0x59, 0x3D, 0x74, 0xF7,
  0x57, 0x3D, 0xBF, 0x8C, 0xC3, 0x3D, 0x76, 0xD9, 0x98, 0xBD,
  0x7E, 0xA9, 0x6A, 0x3D, 0x86, 0x93, 0xF6, 0x3B, 0xCF, 0xD4,
  0xBF, 0xBD, 0xC4, 0x99, 0x2E, 0xBC, 0x27, 0xDF, 0xD6, 0xBD,
  0xEF, 0x99, 0xCC, 0xBC, 0x64, 0x2F, 0x23, 0x3E, 0xDE, 0xCF,
  0xF7, 0x3C, 0x1E, 0x7C, 0x30, 0xBD, 0x15, 0xA6, 0xD6, 0xBC,
  0xF3, 0x9F, 0xC3, 0x3D, 0x72, 0xF5, 0x1B, 0xBD, 0x9D, 0xB4,
  0x3A, 0xBD, 0xB5, 0x4B, 0xBE, 0x3D, 0x61, 0x9A, 0x1C, 0x3C,
  0x10, 0xF0, 0xC9, 0xBD, 0x03, 0x94, 0x83, 0x3D, 0xA6, 0x8C,
  0x9F, 0x3D, 0xCC, 0xC3, 0x53, 0x3D, 0xF1, 0x80, 0x0A, 0x3D,
  0xFF, 0xDA, 0x65, 0xBD, 0xB2, 0x8B, 0x78, 0xBD, 0xC7, 0x30,
  0x53, 0x3E, 0x5E, 0x0E, 0x2E, 0xBC, 0x83, 0xDE, 0xC4, 0x3D,
  0x0F, 0xDA, 0xCB, 0x3D, 0x50, 0x74, 0xB6, 0xBC, 0xA8, 0x68,
  0x7C, 0xBD, 0x18, 0xF2, 0xD8, 0xBB, 0x67, 0x80, 0x90, 0x3D,
  0xE5, 0x5F, 0xE1, 0xBC, 0x55, 0x96, 0xA9, 0x3C, 0xFF, 0x7D,
  0x3B, 0x3C, 0x70, 0x90, 0xD7, 0x3C, 0x45, 0x01, 0xBE, 0xBD,
  0x8C, 0x7F, 0xBF, 0xBD, 0x83, 0x02, 0x8E, 0xBD, 0xF2, 0x7D,
  0x45, 0xBC, 0xE2, 0x77, 0x69, 0x3C, 0x4C, 0xFC, 0x27, 0x3D,
  0x48, 0x35, 0x76, 0xBC, 0xDF, 0x58, 0x65, 0x3D, 0x1E, 0x58,
  0xF0, 0xBB, 0x83, 0xC5, 0xA2, 0xBC, 0x8F, 0x48, 0x80, 0xBD,
  0x3E, 0x91, 0x02, 0x3E, 0x28, 0xC8, 0x8F, 0xBD, 0xF1, 0xFB,
  0xCD, 0xBD, 0x4C, 0x32, 0x8E, 0x3D, 0xE7, 0x8D, 0x8F, 0xBC,
  0x7F, 0x06, 0xC1, 0xBD, 0xBE, 0x60, 0x2C, 0xBD, 0x3C, 0xCF,
  0xC1, 0xBD, 0x10, 0x7A, 0x4F, 0x3C, 0x32, 0xDD, 0xCA, 0x3C,
  0xA8, 0x7D, 0xE6, 0xBD, 0xB7, 0xA2, 0xEC, 0x3C, 0x2E, 0x6C,
  0xF6, 0x3C, 0x7D, 0x73, 0x0C, 0x3E, 0x78, 0x01, 0xC5, 0x3D,
  0xB0, 0x4E, 0x09, 0xBE, 0x29, 0x64, 0xC4, 0x3C, 0x97, 0xA0,
  0x01, 0xBE, 0xD2, 0x03, 0x17, 0xBE, 0x8F, 0x4B, 0xC8, 0x3D,
  0xA5, 0x32, 0x5C, 0x3C, 0x83, 0x82, 0x84, 0xBD, 0x2B, 0x17,
  0xA8, 0x3D, 0x7A, 0xD0, 0xA6, 0xBD, 0xC5, 0x89, 0x65, 0xBD,
  0xFE, 0xD4, 0x9F, 0x3D, 0x7E, 0x44, 0x30, 0xBD, 0x0C, 0x58,
  0x2F, 0xBD, 0xCE, 0xF9, 0xA0, 0x3D, 0x80, 0x55, 0x21, 0x3E,
  0x2B, 0x76, 0x83, 0x3C, 0xE7, 0x25, 0x8C, 0xBD, 0xF2, 0xED,
  0xF0, 0x3C, 0x08, 0x94, 0xF0, 0x3A, 0xB5, 0x42, 0x14, 0x3C,
  0x14, 0xFA, 0x94, 0x3C, 0xB5, 0x58, 0x82, 0x3D, 0x14, 0xE4,
  0xE6, 0xBD, 0xBF, 0x52, 0x95, 0xBC, 0x9B, 0xB0, 0x01, 0xBC,
  0x73, 0xB5, 0x0A, 0xBD, 0xEC, 0xCD, 0x0A, 0x3D, 0x2E, 0x51,
  0x2D, 0x3B, 0x33, 0xF0, 0x6C, 0xBD, 0x3F, 0x2E, 0xAB, 0x3D,
  0xC5, 0x56, 0x8F, 0x3D, 0xCF, 0x23, 0xF0, 0xBC, 0xA7, 0xF1,
  0x81, 0xBD, 0x8C, 0xA3, 0x8E, 0x3D, 0x16, 0xC2, 0x5D, 0x3D,
  0x4E, 0xC8, 0xA1, 0xBD, 0x3A, 0x57, 0x20, 0x3C, 0x2E, 0x8E,
  0x7A, 0xBC, 0x61, 0x05, 0x77, 0xBD, 0xAC, 0x5A, 0x85, 0x3C,
  0xE5, 0xC0, 0x93, 0xBD, 0xAA, 0xAA, 0x1C, 0x3E, 0x42, 0x53,
  0x06, 0xBD, 0xD5, 0x00, 0xE9, 0xBC, 0xD3, 0xB6, 0x62, 0xBD,
  0xCD, 0xCD, 0x2D, 0x3D, 0xD8, 0x26, 0x23, 0x3E, 0x34, 0x31,
  0xDC, 0xBD, 0xBF, 0x6C, 0x98, 0x3D, 0xFB, 0xC6, 0xBF, 0x3D,
  0x0D, 0xA2, 0xDD, 0x3D, 0x96, 0xAE, 0x62, 0xBD, 0x9B, 0x4C,
  0x4D, 0x3B, 0xD2, 0xDE, 0x98, 0x3B, 0x6F, 0x06, 0x98, 0x3C,
  0x75, 0x70, 0xED, 0xBC, 0xA3, 0xFB, 0x1A, 0x3E, 0x30, 0x39,
  0x27, 0x3D, 0xFB, 0x26, 0xA0, 0xBC, 0xB6, 0x69, 0x2C, 0x3D,
  0x74, 0x66, 0x51, 0x3D, 0xF0, 0x78, 0x29, 0xBD, 0xCA, 0x21,
  0xB1, 0x3C, 0x13, 0xB0, 0x8F, 0x3D, 0x73, 0xCC, 0x41, 0x3D,
  0xC7, 0x0D, 0xD1, 0x3D, 0x15, 0x9E, 0x04, 0x3E, 0xA3, 0xD5,
  0x4D, 0xBD, 0x04, 0x1E, 0x7C, 0xBD, 0xDA, 0xC9, 0x32, 0xBD,
  0x8F, 0xDA, 0x09, 0xBD, 0x8D, 0x79, 0xF2, 0xBC, 0xBD, 0xFD,
  0xB1, 0x3D, 0x71, 0x63, 0x78, 0x3D, 0x5F, 0x9A, 0x2B, 0x3C,
  0xE0, 0xD2, 0xAF, 0x3D, 0x6E, 0xEC, 0xA5, 0x3D, 0x65, 0xA3,
  0x5C, 0xBD, 0x36, 0xAE, 0x41, 0xBD, 0x44, 0xC2, 0xA3, 0x3D,
  0xA3, 0x17, 0xF0, 0x3C, 0x86, 0x39, 0x48, 0xBD, 0x76, 0xD6,
  0x24, 0x3D, 0xA1, 0x02, 0x07, 0x3D, 0xA2, 0x84, 0xF3, 0x3D,
  0xA9, 0x12, 0xBA, 0x3C, 0x2A, 0xC9, 0x36, 0x3C, 0x1A, 0x58,
  0xF2, 0x3C, 0x70, 0xE9, 0x54, 0x3D, 0x29, 0x76, 0xE4, 0x3C,
  0x33, 0x84, 0x0E, 0x3D, 0x6E, 0x53, 0xBB, 0x3D, 0xC3, 0x9B,
  0x21, 0x3E, 0x34, 0x68, 0x76, 0xBB, 0x58, 0xC7, 0x85, 0xBD,
  0xAD, 0x1E, 0xB5, 0xBB, 0x19, 0xED, 0xB1, 0x3C, 0x0C, 0xC3,
  0x85, 0x3C, 0x79, 0x59, 0xA9, 0x3C, 0xCB, 0x02, 0x1D, 0xBD,
  0xED, 0x57, 0x88, 0x3D, 0x17, 0x27, 0x38, 0xBD, 0xDD, 0x6A,
  0x89, 0x3D, 0x0E, 0x60, 0xFB, 0xBD, 0xB3, 0x70, 0x83, 0x3D,
  0xC1, 0x6B, 0x65, 0x3D, 0xD9, 0x30, 0x6B, 0xBD, 0xBE, 0x78,
  0xFE, 0x3D, 0x86, 0x1D, 0x98, 0x3D, 0x8A, 0x27, 0x44, 0x3D,
  0x06, 0x4D, 0xAC, 0xBD, 0xDA, 0xF8, 0x95, 0x3D, 0x87, 0x13,
  0xE7, 0xBC, 0xA8, 0xC0, 0xB9, 0x3C, 0x01, 0x2D, 0xA5, 0x3D,
  0xDA, 0xE8, 0x92, 0x3A, 0x7C, 0xA4, 0xDF, 0x3D, 0x04, 0xB4,
  0x29, 0x3C, 0x1A, 0x90, 0xF7, 0xBC, 0x93, 0xC5, 0x66, 0xBE,
  0x35, 0x1A, 0xD2, 0x3D, 0x22, 0x26, 0x35, 0xBC, 0xFF, 0x31,
  0x4D, 0xBC, 0xA5, 0x59, 0x01, 0x3D, 0xEF, 0x9A, 0x9D, 0xBD,
  0x27, 0x35, 0x6E, 0xBD, 0x2A, 0xD7, 0x6D, 0x3C, 0x44, 0xD9,
  0x10, 0xBC, 0xDE, 0x6B, 0xC0, 0x3D, 0xB6, 0x0E, 0x9E, 0x3D,
  0x55, 0x9E, 0xE7, 0xBC, 0x9C, 0xDE, 0x40, 0xBD, 0xB8, 0x6B,
  0x35, 0xBE, 0xE3, 0x45, 0xE0, 0xBD, 0x65, 0x1C, 0x00, 0x3D,
  0x07, 0xE5, 0x0D, 0x3D, 0xA9, 0x06, 0x0C, 0x3D, 0xE3, 0x80,
  0xA1, 0x3C, 0xC6, 0x8C, 0xEB, 0xBC, 0xCA, 0x6B, 0xCE, 0xBD,
  0x6F, 0x2C, 0xBD, 0xBC, 0x64, 0x7B, 0x1A, 0xBC, 0x62, 0xF3,
  0x45, 0xBC, 0x15, 0x9E, 0x0A, 0xBD, 0x63, 0x04, 0xA0, 0x3D,
  0xC2, 0x44, 0x08, 0x3D, 0x29, 0xAC, 0xF4, 0x3D, 0x6E, 0x9B,
  0x37, 0xBD, 0x65, 0x5B, 0x97, 0x3D, 0xBA, 0x98, 0xC7, 0xBD,
  0x78, 0x2F, 0xE8, 0x3C, 0x7D, 0xF2, 0xC0, 0x3B, 0xE9, 0x56,
  0x04, 0xBD, 0x35, 0xBE, 0x3B, 0xBD, 0xC7, 0x17, 0x02, 0xBD,
  0x95, 0xC9, 0x06, 0xBD, 0x61, 0x86, 0xD8, 0xBC, 0x3C, 0xF0,
  0xD4, 0xBD, 0xFB, 0x8A, 0x4F, 0x3D, 0xFD, 0x87, 0xCE, 0xBC,
  0xE9, 0x2B, 0x92, 0x3D, 0x3D, 0xF4, 0x18, 0xBD, 0x4F, 0x96,
  0xC8, 0x3D, 0x26, 0x7D, 0x0E, 0x3C, 0x08, 0x67, 0x71, 0xBC,
  0x82, 0x90, 0x68, 0xBD, 0x41, 0x6A, 0xDD, 0x3A, 0x08, 0x92,
  0xA1, 0x3D, 0x45, 0x14, 0xB1, 0xBD, 0xAF, 0x5A, 0x1C, 0x3D,
  0xA6, 0x27, 0x99, 0x3B, 0x23, 0x8F, 0x39, 0x3D, 0x64, 0x3E,
  0x0C, 0xBD, 0xEC, 0x7C, 0x29, 0xBD, 0x97, 0x2D, 0x14, 0xBD,
  0x2D, 0x08, 0x8B, 0xBC, 0x1C, 0x38, 0xCE, 0xBD, 0xC3, 0x74,
  0x85, 0xBC, 0x5D, 0x64, 0x8A, 0xBC, 0xCE, 0x8E, 0x31, 0xBD,
  0x8B, 0x31, 0x5A, 0xBD, 0x10, 0xC3, 0xE0, 0xBA, 0x1C, 0x8F,
  0x21, 0xBD, 0x5E, 0x78, 0x0D, 0xBE, 0x83, 0x3C, 0x6F, 0x3D,
  0xE9, 0x2D, 0x14, 0x3D, 0x18, 0xB6, 0x8A, 0x3D, 0xBF, 0x1A,
  0xF7, 0xBC, 0xF6, 0xEE, 0x06, 0x3D, 0xEC, 0xD5, 0x99, 0xBD,
  0xF2, 0x42, 0x1C, 0x3A, 0x19, 0xFB, 0x5D, 0xBD, 0x91, 0xD1,
  0xEA, 0x3C, 0x2A, 0x06, 0x53, 0x3D, 0x90, 0xA5, 0xB3, 0x3C,
  0xB2, 0xB1, 0x04, 0xBD, 0xF3, 0xF8, 0x3F, 0xBE, 0xF3, 0x77,
  0x10, 0x3D, 0x5E, 0x7E, 0xFA, 0xBB, 0x58, 0x14, 0xEF, 0x3C,
  0x56, 0xDB, 0x9A, 0x3C, 0xB0, 0xF1, 0x25, 0x3D, 0xC0, 0xF5,
  0xEF, 0x3B, 0xEE, 0x5E, 0xD3, 0xBC, 0x28, 0xE4, 0x4D, 0x3D,
  0x7F, 0x7E, 0x07, 0xBD, 0x05, 0xB1, 0x0A, 0xBE, 0xFD, 0x3E,
  0x2C, 0xBB, 0xFD, 0x54, 0x18, 0x3C, 0xFB, 0xAE, 0xA4, 0x3C,
  0x78, 0x62, 0x5F, 0xBD, 0x5E, 0xC6, 0x03, 0x3E, 0x4C, 0x21,
  0xCA, 0x3C, 0xF2, 0x06, 0x39, 0x3C, 0x3C, 0xC7, 0xB3, 0xBD,
  0x88, 0xB8, 0x38, 0x3D, 0x0F, 0x40, 0x41, 0x3C, 0xBF, 0x52,
  0xFC, 0x3B, 0xCE, 0xBF, 0x79, 0x3D, 0x25, 0xC7, 0x78, 0x3C,
  0xBE, 0x76, 0x92, 0xBC, 0x36, 0x17, 0xAD, 0xBD, 0x19, 0x46,
  0x12, 0x3A, 0xCD, 0xBF, 0x41, 0xBD, 0xED, 0x38, 0xB1, 0xBD,
  0xDE, 0xF9, 0x77, 0x3C, 0x2F, 0x27, 0x45, 0xBD, 0xCA, 0x1D,
  0xDF, 0xBD, 0xE4, 0xEB, 0xC7, 0xBD, 0x04, 0x11, 0xF2, 0x3C,
  0x44, 0x65, 0x64, 0x3B, 0x3A, 0x58, 0x1A, 0xBD, 0xF0, 0x89,
  0x8C, 0xBD, 0xF5, 0x30, 0xEE, 0xBB, 0xBD, 0xEC, 0xB0, 0x3D,
  0x1D, 0x09, 0x11, 0xBD, 0x58, 0x1F, 0x30, 0xBD, 0x0A, 0x0A,
  0x94, 0xBC, 0x39, 0xE8, 0x01, 0x3E, 0x1B, 0x16, 0x40, 0xBC,
  0x9F, 0xC2, 0x38, 0xBC, 0x1E, 0x5D, 0xAE, 0x3C, 0x65, 0x55,
  0xC3, 0x3D, 0x98, 0x97, 0x54, 0x3D, 0x02, 0xBF, 0xCF, 0x3D,
  0x14, 0x1C, 0xB8, 0x3C, 0xF4, 0xDD, 0x6D, 0xBD, 0x2B, 0x2F,
  0x29, 0x3D, 0x7F, 0xA3, 0xB3, 0x3D, 0xB8, 0xD3, 0x7E, 0xBD,
  0xA9, 0xED, 0x69, 0x3E, 0xFD, 0xCB, 0xD2, 0xBD, 0xE5, 0x63,
  0xF0, 0x3C, 0x4A, 0xA2, 0x9A, 0xBB, 0x00, 0x81, 0x3B, 0xBD,
  0x17, 0x50, 0x3F, 0xBD, 0x96, 0xF9, 0x80, 0x3C, 0x65, 0x13,
  0x12, 0x3E, 0x8E, 0x12, 0x5B, 0xBD, 0xE2, 0x55, 0x80, 0xBB,
  0x95, 0xDA, 0x71, 0xBE, 0xC7, 0xBA, 0x8F, 0x3D, 0x36, 0xB7,
  0x09, 0x3D, 0x66, 0x24, 0xB0, 0x3D, 0x8F, 0xAE, 0x08, 0xBC,
  0x6D, 0xFC, 0x17, 0xBD, 0x52, 0x7E, 0x5F, 0xBD, 0x3E, 0x2A,
  0xFB, 0xBD, 0x28, 0x85, 0xCF, 0xBD, 0xFE, 0x2C, 0x3C, 0x3C,
  0x52, 0xB7, 0xC1, 0x3D, 0xA7, 0x7E, 0xDE, 0xBC, 0x20, 0xD6,
  0x53, 0xBD, 0xEF, 0x4F, 0x78, 0x3D, 0x31, 0x3E, 0x2C, 0xBD,
  0x66, 0xDD, 0x45, 0x3D, 0x0D, 0x79, 0x40, 0xBE, 0x7F, 0x54,
  0x3A, 0x3E, 0x95, 0x54, 0x9E, 0x3D, 0xCD, 0x28, 0xCF, 0xBC,
  0x5B, 0xD0, 0x05, 0xBD, 0x78, 0x1B, 0x52, 0xBD, 0x4C, 0xAE,
  0x88, 0x3D, 0x72, 0x9A, 0xCB, 0xBD, 0x9F, 0x00, 0x51, 0xBD,
  0x02, 0xE4, 0x33, 0x3D, 0x8E, 0x88, 0x8F, 0x3D, 0xC8, 0x85,
  0x91, 0xBD, 0x0A, 0x63, 0xA2, 0xBD, 0x53, 0x65, 0xCD, 0x3D,
  0x0C, 0x9D, 0x83, 0xBD, 0x93, 0xEB, 0xC4, 0x3D, 0xD4, 0xE2,
  0x2F, 0xBE, 0x14, 0x96, 0x3A, 0xBC, 0xB3, 0x27, 0xBA, 0x3D,
  0xE1, 0xBE, 0xBC, 0x3C, 0x3F, 0xDA, 0x6A, 0x3D, 0x31, 0x95,
  0x33, 0x3C, 0x21, 0x61, 0x00, 0x3D, 0x32, 0x8C, 0x1B, 0xBE,
  0xBA, 0xCA, 0xBB, 0xB8, 0xB1, 0x24, 0xA4, 0xBD, 0xC8, 0x96,
  0x3A, 0x3E, 0x6B, 0x5D, 0x3C, 0x3D, 0x10, 0x05, 0x28, 0xBD,
  0x65, 0xF4, 0xC8, 0x3D, 0xD2, 0x9F, 0x23, 0x3D, 0xAD, 0x40,
  0xE5, 0x3D, 0xE3, 0xF1, 0x1A, 0xBD, 0x04, 0x40, 0xDB, 0x3C,
  0x51, 0xF8, 0xAC, 0x3D, 0x6C, 0x3F, 0x1C, 0xBD, 0x48, 0x31,
  0x4B, 0x3E, 0x1C, 0xE5, 0x8B, 0x3B, 0xA9, 0x51, 0x33, 0xBD,
  0xA6, 0x0D, 0x3E, 0x3E, 0x26, 0x4E, 0xA5, 0x3C, 0xF3, 0xE7,
  0x97, 0xBD, 0xEE, 0x78, 0xF4, 0x3B, 0x82, 0xBE, 0x23, 0x3E,
  0xCC, 0xEC, 0x30, 0x3C, 0x94, 0x8F, 0x64, 0x3D, 0x42, 0xBF,
  0x8B, 0x3D, 0xDB, 0x56, 0x6F, 0x3D, 0xBD, 0x0F, 0x8D, 0xBD,
  0x8A, 0x7D, 0xC2, 0xBC, 0x66, 0x68, 0xF8, 0x3D, 0xB7, 0x3B,
  0xA1, 0xBD, 0xB3, 0xFF, 0x3E, 0xBD, 0x7A, 0x12, 0x49, 0x3D,
  0x4B, 0xD7, 0x0C, 0x3C, 0xE9, 0x40, 0x19, 0x3E, 0xA1, 0x95,
  0x27, 0x3D, 0x89, 0xF5, 0xE7, 0xBD, 0x1F, 0xEC, 0x8E, 0xBD,
  0x47, 0xB6, 0xB1, 0x3D, 0xBA, 0x2D, 0xA1, 0x3C, 0x58, 0x54,
  0x19, 0xBC, 0x31, 0x52, 0xBE, 0xBC, 0xFA, 0x3D, 0x2A, 0xBD,
  0x4F, 0x74, 0xDE, 0x3D, 0x59, 0x6A, 0x72, 0xBD, 0xE6, 0xD2,
  0xB7, 0xBC, 0x7F, 0x8E, 0x1C, 0x3D, 0x3F, 0x2B, 0x74, 0x3D,
  0x43, 0x48, 0xB9, 0x3B, 0x39, 0xD8, 0x2D, 0x3C, 0x81, 0x39,
  0x5E, 0x3E, 0x43, 0x08, 0x4F, 0x3C, 0xD6, 0x1C, 0x85, 0xBD,
  0xA0, 0x46, 0x9E, 0xBC, 0xA9, 0x1B, 0x23, 0x3D, 0xED, 0xEA,
  0x3E, 0x3D, 0x7B, 0xB9, 0x40, 0xBC, 0x68, 0x17, 0x8E, 0xBD,
  0x7B, 0x2A, 0x4B, 0x3C, 0x88, 0x61, 0xEB, 0x3D, 0xD9, 0xFE,
  0x82, 0xBD, 0xC3, 0x71, 0xC3, 0xBD, 0xD6, 0xF5, 0x6F, 0xBD,
  0x89, 0xFA, 0x56, 0x3A, 0x14, 0x33, 0x9E, 0x3C, 0xAF, 0x16,
  0x4D, 0x3D, 0x9B, 0xB7, 0x16, 0x3E, 0x52, 0x8E, 0x33, 0x3D,
  0x2E, 0xD3, 0xF2, 0x3C, 0x78, 0x36, 0x68, 0x3D, 0xE0, 0x8C,
  0x12, 0x3D, 0xE8, 0x96, 0x28, 0x3D, 0x5D, 0xF4, 0x42, 0xBE,
  0xE1, 0xC5, 0x3D, 0xBD, 0x83, 0x52, 0x28, 0x3C, 0x01, 0x8A,
  0xAD, 0x3D, 0xC8, 0xC1, 0x77, 0xBC, 0xC7, 0xB5, 0xB6, 0xBC,
  0xB1, 0x54, 0x8B, 0xBD, 0x92, 0x91, 0xA3, 0x3D, 0xF5, 0x5E,
  0x9A, 0x3D, 0x58, 0x96, 0xBD, 0xBD, 0x58, 0x71, 0xE1, 0x3D,
  0x1B, 0xDB, 0x75, 0xBC, 0x8C, 0xC2, 0x0F, 0xBE, 0xDC, 0xC2,
  0xDE, 0xBD, 0xF2, 0x0A, 0x94, 0x3D, 0x3B, 0xE7, 0x61, 0x3D,
  0x7F, 0xFB, 0xFC, 0xBA, 0x65, 0x7F, 0x43, 0x3D, 0x59, 0x01,
  0x09, 0x3E, 0x0A, 0x72, 0x2C, 0xBE, 0x45, 0x24, 0x3B, 0xBE,
  0xC7, 0xBE, 0xCF, 0x3D, 0x61, 0x27, 0x1D, 0xBD, 0x43, 0xE3,
  0xB4, 0xBC, 0x1E, 0x1D, 0x87, 0x3D, 0x97, 0xA8, 0x8A, 0xBD,
  0xEF, 0x70, 0x09, 0x3D, 0x4C, 0x99, 0x87, 0x3D, 0xA5, 0xE5,
  0x36, 0xBD, 0xBC, 0x7F, 0x84, 0xBD, 0xE6, 0x28, 0x89, 0xBC,
  0x5B, 0x6C, 0x7B, 0x3D, 0x3D, 0x05, 0x00, 0x3B, 0x15, 0x17,
  0x3B, 0xBD, 0xCB, 0x48, 0x45, 0x3D, 0xF8, 0xF1, 0x83, 0x3D,
  0xE4, 0xCE, 0xB9, 0xBD, 0x02, 0xAA, 0xBE, 0x3C, 0xB0, 0x1B,
  0xED, 0xBC, 0x36, 0xCF, 0xCF, 0x3C, 0x1E, 0x29, 0xAB, 0x3D,
  0xAA, 0x24, 0xA4, 0xBC, 0x87, 0xB8, 0x4E, 0x3D, 0xD9, 0x15,
  0x5B, 0x3D, 0x19, 0x40, 0x8D, 0xBD, 0x45, 0xE6, 0x8B, 0xBD,
  0xF1, 0x1D, 0x08, 0x3D, 0x4D, 0xF5, 0xE1, 0x3B, 0xED, 0x26,
  0x5B, 0xBD, 0xC0, 0x02, 0x4B, 0xBD, 0xA6, 0x89, 0xBF, 0x3D,
  0x19, 0x6E, 0x6E, 0x3D, 0xC9, 0x9B, 0xBD, 0xBD, 0x3F, 0xF9,
  0xF8, 0x3D, 0xD3, 0x94, 0x62, 0x3D, 0xD9, 0x9F, 0x8F, 0x3D,
  0x9A, 0xCE, 0x27, 0x3D, 0xA2, 0x99, 0xB1, 0xBB, 0x0F, 0x09,
  0xDE, 0x3D, 0x37, 0x29, 0x7A, 0x3D, 0xB7, 0x71, 0x7C, 0x3B,
  0x9D, 0xEB, 0xBA, 0x3D, 0xA4, 0x5D, 0x9D, 0xBC, 0xAC, 0xA7,
  0xCB, 0x3B, 0xF9, 0x6C, 0x8E, 0x3D, 0xE6, 0xE3, 0x96, 0xBD,
  0x77, 0xAC, 0x6F, 0xBD, 0x86, 0x8F, 0x33, 0xBC, 0xE9, 0x47,
  0x1D, 0xBD, 0x1D, 0xEA, 0xB3, 0xBD, 0x13, 0xF0, 0xE8, 0xBB,
  0x29, 0x4A, 0xAD, 0x3D, 0xD2, 0x1B, 0x7D, 0x3D, 0xE1, 0xF4,
  0x0A, 0xBE, 0x71, 0x92, 0x7F, 0x3D, 0x30, 0xD5, 0x6A, 0xBD,
  0x3D, 0x25, 0xE0, 0xBD, 0x44, 0x2D, 0xA3, 0xBD, 0x6C, 0x0E,
  0x19, 0xBA, 0x84, 0x00, 0xC1, 0x3D, 0x4E, 0xE0, 0x9C, 0x3D,
  0xBD, 0x2D, 0xCD, 0x3D, 0x0F, 0xBE, 0x51, 0xBD, 0x77, 0xD7,
  0xD3, 0xBD, 0x5F, 0x5D, 0x73, 0xBD, 0xF5, 0x5B, 0xA7, 0x3D,
  0x27, 0x25, 0x14, 0x3D, 0xF3, 0x97, 0xD9, 0x3C, 0xA2, 0xC6,
  0x1F, 0xBB, 0xA8, 0x08, 0x62, 0xBB, 0x35, 0xEE, 0x9A, 0xBD,
  0x3C, 0xCF, 0xAB, 0x3D, 0x07, 0x61, 0x96, 0xBC, 0x07, 0x85,
  0x48, 0xBE, 0xF1, 0x3D, 0xC3, 0x3C, 0x91, 0x3A, 0xC1, 0x3D,
  0x9F, 0xFA, 0xA0, 0xBD, 0xD7, 0x37, 0xE7, 0x3B, 0xE8, 0xD3,
  0x75, 0x3C, 0xBA, 0xDB, 0x28, 0x3D, 0x7B, 0xD9, 0x6A, 0xBD,
  0xDF, 0x78, 0xEA, 0xBC, 0x1D, 0x4C, 0x24, 0x3D, 0x71, 0x7D,
  0xCA, 0x3D, 0xF1, 0x54, 0xCA, 0x3C, 0x1F, 0x6C, 0x90, 0xBD,
  0x1E, 0x5A, 0x00, 0x3E, 0x34, 0xFC, 0xA9, 0xBC, 0x4D, 0xDD,
  0x57, 0xBD, 0x25, 0xD1, 0x0C, 0xBD, 0x2E, 0xAA, 0x8B, 0x3C,
  0x44, 0xA6, 0x23, 0x3C, 0x99, 0x12, 0x88, 0xBD, 0xBA, 0x79,
  0x45, 0xBC, 0xA2, 0xAE, 0x5D, 0x3D, 0x89, 0x80, 0x64, 0x3D,
  0x61, 0x9D, 0x08, 0xBE, 0x1E, 0x22, 0x88, 0xBC, 0xB0, 0xC9,
  0xDF, 0x3C, 0x1C, 0xF0, 0x2C, 0x3C, 0x3F, 0x67, 0xAB, 0xBD,
  0xC8, 0xA3, 0x9E, 0xBC, 0x72, 0xFF, 0xCD, 0xBC, 0xDA, 0x91,
  0xF7, 0x3C, 0xA1, 0x7A, 0x08, 0xBD, 0x7C, 0x1D, 0x40, 0x3D,
  0xFD, 0x42, 0x58, 0x3B, 0x30, 0xBD, 0x95, 0xBC, 0xA5, 0xAD,
  0xC0, 0xBA, 0x51, 0x11, 0x70, 0x3D, 0xBF, 0x42, 0x54, 0xBA,
  0xB6, 0xAE, 0xC8, 0x3C, 0xCE, 0x33, 0x09, 0xBD, 0x86, 0xFB,
  0xC9, 0x3B, 0xA5, 0x7E, 0xFD, 0x3C, 0xC8, 0xF9, 0x38, 0x3E,
  0x5B, 0x38, 0x87, 0x3D, 0xFF, 0x73, 0x68, 0x3D, 0x00, 0x0E,
  0xAF, 0x3C, 0x7C, 0x8E, 0xE5, 0x3C, 0x72, 0x06, 0x70, 0xBD,
  0x16, 0xDA, 0xA9, 0x3D, 0x7A, 0x8A, 0xA1, 0x3D, 0xF6, 0xC9,
  0x3A, 0x3D, 0xC8, 0x00, 0x8B, 0xBC, 0xA7, 0xD8, 0xDE, 0x3D,
  0xE6, 0xF5, 0x07, 0xBD, 0x14, 0x8D, 0x67, 0xBD, 0xE1, 0x3B,
  0xA6, 0xBD, 0x8F, 0xE6, 0x40, 0x3D, 0x32, 0xF3, 0x3E, 0x3D,
  0x70, 0xE0, 0xBD, 0x3D, 0x74, 0xC6, 0x31, 0x3D, 0x67, 0x84,
  0x91, 0xBD, 0xD1, 0x28, 0xC6, 0x3D, 0xFD, 0xB7, 0xF8, 0x3D,
  0xB7, 0xD8, 0xCA, 0xBD, 0x78, 0x19, 0x3D, 0xBD, 0x66, 0xEF,
  0x4E, 0x3D, 0x01, 0x18, 0xAE, 0x3C, 0x08, 0x23, 0x06, 0xBE,
  0xBB, 0x80, 0x74, 0x3D, 0x15, 0x82, 0x6C, 0xBD, 0xFD, 0x1A,
  0xD8, 0xBC, 0x6D, 0x6A, 0xF5, 0xBC, 0xE9, 0x0E, 0x95, 0xBD,
  0xFB, 0x86, 0xD7, 0x3D, 0x67, 0x2B, 0x64, 0x3D, 0x4B, 0xEA,
  0x92, 0x3D, 0x8B, 0xC6, 0xB1, 0xBD, 0x69, 0x5F, 0xE3, 0x3B,
  0xFD, 0x46, 0xC1, 0x3D, 0x1B, 0x8F, 0xB7, 0xBD, 0x63, 0x31,
  0xCB, 0xBD, 0x2C, 0x6F, 0x99, 0x3C, 0x36, 0xC7, 0xEE, 0xBB,
  0xFA, 0x43, 0x4B, 0xBC, 0x9E, 0xC7, 0x37, 0x3C, 0x51, 0x49,
  0x95, 0x3D, 0x03, 0x3B, 0x4F, 0x3C, 0xAD, 0x84, 0x13, 0xBB,
  0xD5, 0x96, 0xB1, 0x3D, 0x71, 0x31, 0x0F, 0x3D, 0x7B, 0x68,
  0xE7, 0x3D, 0xEF, 0xC6, 0xB7, 0x3C, 0x5A, 0x78, 0xF4, 0x3C,
  0x4E, 0xF1, 0x96, 0x3D, 0x0A, 0xC7, 0xDB, 0x3C, 0x0F, 0x43,
  0x5A, 0xBC, 0xCA, 0x2E, 0x3E, 0xBE, 0xDF, 0x30, 0x61, 0x3C,
  0xB6, 0xA9, 0xB6, 0xBC, 0x2E, 0x33, 0x97, 0xBD, 0xF9, 0x00,
  0x23, 0xBD, 0xBB, 0x12, 0x34, 0xBC, 0x7D, 0x98, 0x28, 0xBC,
  0x73, 0xFF, 0x93, 0xBD, 0xD2, 0xFC, 0x9C, 0xBD, 0x67, 0xD6,
  0xA8, 0xBD, 0xC9, 0x86, 0xD9, 0x3C, 0xC5, 0x6A, 0x7E, 0xBD,
  0xCB, 0x30, 0x8B, 0xBD, 0xE1, 0xD8, 0x20, 0xBE, 0x49, 0x9C,
  0x15, 0xBE, 0x25, 0x67, 0x17, 0x3E, 0xD5, 0x00, 0xD7, 0xBE,
  0x4A, 0x2C, 0x10, 0xBE, 0xAE, 0x67, 0x69, 0xBD, 0xFC, 0x78,
  0xF9, 0xBD, 0x5A, 0x64, 0x4E, 0xBE, 0x5E, 0x1D, 0xBD, 0xBD,
  0x84, 0x83, 0x4D, 0x3D, 0x11, 0xE6, 0x93, 0xBD, 0xF6, 0x68,
  0x17, 0xBE, 0xA7, 0xE5, 0x3A, 0xBE, 0xB3, 0xFE, 0xAC, 0xBD,
  0xF0, 0xDC, 0x43, 0x3D, 0xD4, 0xAD, 0x7D, 0xBD, 0xBB, 0x79,
  0x68, 0xBE, 0xD1, 0x13, 0x26, 0xBE, 0xE4, 0x93, 0x17, 0x3D,
  0xED, 0xA2, 0x79, 0xBE, 0x7A, 0xC3, 0x0E, 0xBE, 0x6A, 0x91,
  0x9D, 0xBC, 0x04, 0x6F, 0x57, 0xBE, 0xE2, 0xC8, 0x0A, 0x3D,
  0x36, 0xBB, 0xE6, 0xBD, 0x78, 0x16, 0x06, 0xBE, 0x9B, 0x7F,
  0x4B, 0xBC, 0x94, 0xFA, 0x1B, 0xBE, 0x09, 0x22, 0x45, 0xBE,
  0xA7, 0x25, 0xC2, 0xBD, 0x00, 0xEF, 0x96, 0x3C, 0xAB, 0x83,
  0x56, 0xBD, 0xDA, 0xCE, 0x8F, 0xBE, 0x20, 0x7C, 0x32, 0xBE,
  0x87, 0x7C, 0x95, 0xBD, 0x28, 0x3C, 0x39, 0xBD, 0x02, 0x35,
  0x28, 0xBE, 0x7D, 0x53, 0x0F, 0xBD, 0xDD, 0xBC, 0x71, 0xBE,
  0xFA, 0x31, 0xF3, 0xBC, 0x1C, 0x68, 0x51, 0xBD, 0xF2, 0x9F,
  0x37, 0xBD, 0xF6, 0xFE, 0x96, 0x3D, 0x28, 0x0B, 0xC7, 0xBC,
  0x82, 0x9E, 0x74, 0xBE, 0x10, 0xA9, 0x3C, 0xBE, 0xA6, 0x84,
  0x4C, 0xBD, 0xDE, 0x57, 0xE4, 0xBD, 0x57, 0xCF, 0x2A, 0xBE,
  0x0C, 0x1C, 0x24, 0xBE, 0x0A, 0x9C, 0xC1, 0x3D, 0xCA, 0x32,
  0x7D, 0xBE, 0x2B, 0x87, 0x98, 0xBD, 0xF6, 0xAF, 0x9A, 0x3D,
  0xB0, 0x3E, 0x53, 0xBE, 0x14, 0xF6, 0x1B, 0xBE, 0x5E, 0x57,
  0xC0, 0xBD, 0x2B, 0x1F, 0xEA, 0xBD, 0xA1, 0xF5, 0xC4, 0xBC,
  0x62, 0x32, 0x8B, 0x3D, 0x63, 0xA4, 0x31, 0xBE, 0xAD, 0x04,
  0x08, 0xBE, 0xE3, 0x4D, 0x83, 0x3D, 0xCB, 0x9B, 0x2F, 0xBE,
  0xA8, 0x08, 0x27, 0xBC, 0x21, 0x09, 0xDA, 0x3C, 0x8D, 0x2B,
  0x89, 0x3D, 0x1B, 0x8E, 0x30, 0xBC, 0x98, 0x0B, 0x51, 0xBD,
  0x2A, 0xBF, 0x87, 0xBD, 0xFB, 0x8D, 0x3A, 0x3E, 0x98, 0x6B,
  0x06, 0x3D, 0xF4, 0x45, 0xC1, 0x3D, 0xC5, 0x8C, 0xF5, 0x3D,
  0xF0, 0xF7, 0xF1, 0x3C, 0x3E, 0xEA, 0xEE, 0xBC, 0xA4, 0x55,
  0xD8, 0x3C, 0xE2, 0xA3, 0x08, 0xBD, 0xC8, 0x81, 0x81, 0xBC,
  0xCD, 0xCA, 0x04, 0xBE, 0x38, 0xD4, 0x94, 0x3D, 0xB4, 0xF1,
  0x91, 0x3D, 0x37, 0x4F, 0x0D, 0x3E, 0x58, 0x4D, 0x05, 0xBC,
  0xA7, 0x1D, 0xCB, 0x3C, 0x8F, 0xD0, 0x0F, 0xBD, 0xB7, 0xD1,
  0x26, 0x3E, 0xF2, 0x01, 0x84, 0xBD, 0x99, 0xF1, 0x2C, 0xBD,
  0x7B, 0x64, 0xF0, 0xBD, 0x37, 0x4E, 0xAA, 0x3B, 0xE4, 0x79,
  0x6D, 0x3C, 0xD1, 0x78, 0xEC, 0xBC, 0xCB, 0x0B, 0xC0, 0xBB,
  0x58, 0x8A, 0xD0, 0xBB, 0xC8, 0x16, 0x14, 0xBD, 0x19, 0x00,
  0x92, 0xBD, 0x07, 0xBF, 0x98, 0x3D, 0xFA, 0xD2, 0x85, 0x3D,
  0x26, 0xED, 0x30, 0xBB, 0x58, 0x3E, 0x0C, 0x3C, 0xA0, 0x4C,
  0x01, 0xBC, 0x42, 0x6E, 0xC8, 0x3D, 0xFC, 0x19, 0xF3, 0x3C,
  0x42, 0x9B, 0xC0, 0xBD, 0x82, 0x22, 0x84, 0xBC, 0x8C, 0x9B,
  0x15, 0x3E, 0x82, 0x98, 0xCE, 0xBD, 0x35, 0x25, 0x9F, 0x3C,
  0x01, 0x32, 0x22, 0xBE, 0x90, 0x99, 0x76, 0xBD, 0xB7, 0x16,
  0xA8, 0xBD, 0xE5, 0x21, 0x39, 0x3D, 0xD4, 0x65, 0xF5, 0xBD,
  0x96, 0x14, 0xE9, 0x3D, 0x8F, 0x35, 0x17, 0xBE, 0x3E, 0xFB,
  0x9A, 0x3D, 0xBC, 0x0C, 0xCE, 0x3C, 0x73, 0x9F, 0x97, 0x3D,
  0xA3, 0x36, 0x8B, 0xBD, 0xDA, 0x35, 0xD4, 0x3D, 0x24, 0x1A,
  0xAD, 0xBC, 0xF2, 0xFD, 0x51, 0x3D, 0xC1, 0x6A, 0x48, 0xBC,
  0xD4, 0x6C, 0xA0, 0xBD, 0xBD, 0xE6, 0xF8, 0x3C, 0x42, 0xCA,
  0x2D, 0x3B, 0xE1, 0x42, 0x96, 0xBD, 0xC8, 0x24, 0xB8, 0xBC,
  0x91, 0x70, 0x7B, 0x3D, 0x51, 0x22, 0xC6, 0x3D, 0xD3, 0xE4,
  0x72, 0x3D, 0x62, 0x51, 0x73, 0xBD, 0xC8, 0xAF, 0x01, 0x3D,
  0xFC, 0x1E, 0x1C, 0x3E, 0x5F, 0xEF, 0xC1, 0x3D, 0xDC, 0x98,
  0x72, 0x3D, 0xBC, 0xA6, 0x88, 0x3D, 0xCA, 0x83, 0x86, 0x3D,
  0x8F, 0x51, 0x2C, 0x3E, 0xB8, 0xA4, 0xB0, 0x3D, 0xD9, 0xA0,
  0xC2, 0xBD, 0x19, 0xB2, 0xB8, 0xBB, 0x9B, 0x55, 0x17, 0xBE,
  0x0A, 0x52, 0xF8, 0xBB, 0xD0, 0x5C, 0x18, 0x3D, 0xEE, 0x9E,
  0x80, 0x3D, 0xD2, 0x05, 0xD5, 0x3B, 0x93, 0x4A, 0x10, 0xBE,
  0x62, 0x16, 0xBF, 0xBD, 0x83, 0x67, 0xC1, 0x3D, 0xDA, 0x55,
  0xAB, 0xBD, 0xCD, 0xBD, 0xF4, 0xBB, 0x4F, 0x0C, 0x7F, 0xBC,
  0xDE, 0x58, 0xAB, 0xBD, 0xC4, 0x17, 0xF7, 0x3D, 0xC5, 0xD9,
  0xAA, 0x3D, 0xBB, 0x0E, 0x9C, 0x3C, 0xE3, 0x14, 0xB9, 0x3C,
  0x94, 0xE8, 0xB0, 0x3D, 0xE3, 0xBD, 0x8E, 0x3C, 0xB1, 0xCF,
  0x61, 0x3C, 0x94, 0x26, 0x8B, 0xBC, 0x6B, 0x9E, 0xA0, 0x3D,
  0xDC, 0x49, 0xEF, 0x3B, 0x8E, 0xC4, 0x96, 0xBD, 0x8E, 0x83,
  0x14, 0x3E, 0xEB, 0xD3, 0x97, 0x3D, 0x61, 0xD5, 0x1E, 0x3D,
  0xC3, 0x47, 0x00, 0xBD, 0x0A, 0xFB, 0x36, 0xBD, 0x10, 0x13,
  0xC7, 0xBC, 0xD9, 0xFD, 0xBA, 0x3D, 0xC0, 0x73, 0x8B, 0xBD,
  0x08, 0x24, 0x09, 0x3D, 0xB3, 0xEE, 0x24, 0xBD, 0x23, 0xBC,
  0xCD, 0xBD, 0x17, 0x91, 0x2B, 0xBC, 0xA3, 0x5D, 0x68, 0x3D,
  0x26, 0x2F, 0x81, 0x3C, 0xE9, 0xB1, 0x1E, 0xBC, 0x94, 0x30,
  0xB9, 0x3D, 0xEB, 0xE0, 0x49, 0x3E, 0x67, 0x02, 0x99, 0xBC,
  0x71, 0x2B, 0x19, 0x3D, 0x45, 0xE0, 0x82, 0xBD, 0xF4, 0x67,
  0x0F, 0x3E, 0x50, 0x30, 0xBB, 0x3B, 0x35, 0x06, 0x47, 0x3C,
  0x9D, 0xAD, 0x30, 0xBE, 0x89, 0xDF, 0xB9, 0x3D, 0x02, 0xA8,
  0x27, 0xBE, 0xD2, 0x3B, 0x9E, 0xBC, 0x8B, 0x0A, 0xD9, 0x3C,
  0xB5, 0xF7, 0x68, 0xBD, 0xF7, 0xCC, 0xA6, 0xBC, 0x98, 0xD6,
  0xB6, 0x3C, 0xE4, 0x79, 0x54, 0x3D, 0x89, 0xCE, 0xE8, 0x3C,
  0x24, 0x3D, 0x19, 0x3E, 0x0A, 0x4B, 0x51, 0x3D, 0xF1, 0xC5,
  0x7C, 0x3D, 0xD8, 0x99, 0xB6, 0x3C, 0x64, 0xEE, 0xF1, 0x3A,
  0x50, 0x7D, 0x86, 0xBD, 0x88, 0xCA, 0xE8, 0xBD, 0x80, 0x71,
  0x00, 0x3D, 0x0B, 0x2D, 0x5B, 0xBE, 0xFB, 0x27, 0x39, 0x3A,
  0x0D, 0x78, 0x99, 0x3D, 0x0B, 0x93, 0xD7, 0x3B, 0x50, 0x17,
  0xDB, 0xBD, 0xA4, 0x89, 0x50, 0xBC, 0xA1, 0x93, 0x4D, 0xBD,
  0x90, 0xE8, 0x8B, 0xBD, 0x4B, 0x2A, 0xD8, 0x3D, 0x48, 0x07,
  0xFC, 0xBC, 0xCA, 0x5A, 0x09, 0x3E, 0xE9, 0x57, 0x7D, 0xBC,
  0x6F, 0x4B, 0x5A, 0xBD, 0x16, 0x57, 0x79, 0x3C, 0xF9, 0xF7,
  0x30, 0xBE, 0xAB, 0x1B, 0x5B, 0x3D, 0x55, 0x5B, 0xCF, 0xBC,
  0xCD, 0xDE, 0x2A, 0xBD, 0xDF, 0x79, 0x22, 0xBD, 0x90, 0x65,
  0x61, 0xBC, 0x8D, 0xA5, 0x3A, 0x3D, 0x10, 0x4D, 0x84, 0xBC,
  0x46, 0x49, 0xE1, 0xBC, 0x85, 0xA8, 0xC6, 0xBC, 0x64, 0xA8,
  0xD8, 0x3D, 0xEA, 0xFC, 0xC6, 0x3B, 0xB4, 0xE7, 0xB2, 0x3D,
  0x24, 0x37, 0x43, 0xBC, 0x80, 0xEA, 0x8E, 0xBD, 0xF5, 0x4E,
  0xA6, 0xBD, 0x38, 0xC0, 0x91, 0xBE, 0x05, 0xA1, 0xA8, 0x3D,
  0x73, 0x48, 0x03, 0xBE, 0xB7, 0xCA, 0xAD, 0xBA, 0xBC, 0x1F,
  0xFB, 0x3C, 0x2E, 0x9E, 0xDD, 0x3D, 0x8E, 0xA8, 0x6F, 0xBC,
  0x47, 0xD6, 0xC3, 0x3D, 0xEC, 0x26, 0x94, 0x3D, 0xA6, 0xA6,
  0x39, 0xBE, 0xA0, 0x2F, 0x1D, 0x3E, 0xA7, 0x89, 0x4B, 0xBD,
  0xA1, 0xE7, 0xCB, 0x3D, 0x4F, 0xED, 0x81, 0xBC, 0xB6, 0xF4,
  0x2A, 0xBB, 0x2E, 0xFD, 0x75, 0xBD, 0x40, 0x3E, 0x07, 0xBE,
  0xC2, 0xC4, 0xB1, 0xBD, 0x66, 0xDA, 0xB7, 0x3C, 0xFA, 0x89,
  0x2E, 0xBD, 0xB2, 0x80, 0x27, 0xBE, 0x0B, 0xE9, 0x06, 0xBD,
  0xB8, 0xF6, 0xC5, 0x3D, 0xD9, 0x05, 0x53, 0xBD, 0x59, 0x1D,
  0x29, 0xBE, 0x22, 0x77, 0xE9, 0xBB, 0xE5, 0x24, 0x9C, 0xBD,
  0xB9, 0xE4, 0xDA, 0x3C, 0xA0, 0x48, 0x20, 0xBE, 0xFD, 0x10,
  0x69, 0x3B, 0x9C, 0x69, 0x68, 0x3D, 0xC4, 0x8F, 0x01, 0xBC,
  0x3D, 0x0D, 0x4F, 0xBD, 0x53, 0xAF, 0x90, 0x3C, 0xD9, 0x5F,
  0x33, 0x3C, 0xC7, 0x15, 0x89, 0xBB, 0xE8, 0xB5, 0x72, 0xBD,
  0x74, 0x5D, 0x78, 0x3D, 0x33, 0xD0, 0xAE, 0x3D, 0x3D, 0xF5,
  0xBF, 0x3C, 0xFE, 0x5B, 0x61, 0xBC, 0x51, 0x06, 0x2B, 0x3E,
  0x01, 0x93, 0x1F, 0xBC, 0xFE, 0x12, 0x06, 0x3D, 0x4A, 0x9E,
  0x9F, 0xBD, 0xAB, 0xFD, 0xAF, 0x3D, 0x32, 0x4C, 0x2C, 0x3D,
  0xD7, 0x9B, 0x8D, 0x3D, 0x88, 0x82, 0x8B, 0x3C, 0x99, 0x4A,
  0x97, 0xBD, 0x64, 0xBF, 0xE4, 0xBB, 0xA1, 0x91, 0xF5, 0x3C,
  0x22, 0x14, 0xD2, 0xBD, 0xE6, 0xA0, 0x25, 0xBD, 0xB7, 0x9C,
  0xB1, 0x3D, 0x0F, 0x40, 0xB6, 0x3D, 0x34, 0x67, 0x9A, 0xBD,
  0xEE, 0xA0, 0xEC, 0x3C, 0xD5, 0x2C, 0x7F, 0xBD, 0x79, 0x0D,
  0xA2, 0xBC, 0x10, 0xEB, 0xEB, 0xBD, 0xCB, 0x61, 0x9A, 0xBD,
  0xEC, 0x19, 0x89, 0xBD, 0xC8, 0xD0, 0x8A, 0x3D, 0x82, 0xF1,
  0xA3, 0x3D, 0x39, 0xEA, 0xAD, 0xBC, 0x73, 0xAB, 0x73, 0xBC,
  0xAD, 0x34, 0x46, 0xBE, 0x90, 0x17, 0xCC, 0xBD, 0xF6, 0xCE,
  0x8C, 0xBD, 0xFB, 0x6F, 0x36, 0x3D, 0x8E, 0x75, 0xA1, 0x3D,
  0x88, 0xFA, 0x36, 0x3D, 0x0D, 0x00, 0x8E, 0x3D, 0x9D, 0x89,
  0xE3, 0x3D, 0x20, 0x91, 0xBB, 0x3D, 0x2F, 0xED, 0xB3, 0xBD,
  0x65, 0xEE, 0xC8, 0x3C, 0x5A, 0xA7, 0x1A, 0x3D, 0xA2, 0x54,
  0x9C, 0x3E, 0xA5, 0x6F, 0x0A, 0x3D, 0xE4, 0x5E, 0x10, 0x3C,
  0x51, 0xF4, 0x76, 0x3C, 0xDC, 0x66, 0x6F, 0x3B, 0x5E, 0x0B,
  0x87, 0xBC, 0xE3, 0x82, 0xF9, 0xBC, 0xDC, 0x67, 0x46, 0x3D,
  0x5F, 0x50, 0x9E, 0xBD, 0xAA, 0x3B, 0x94, 0xBD, 0xDC, 0x4B,
  0x6B, 0x3C, 0xFD, 0xC3, 0x12, 0x3C, 0x7D, 0x05, 0x16, 0xBC,
  0xFC, 0x61, 0x1E, 0xBE, 0xD3, 0x0D, 0x92, 0xBC, 0x49, 0x86,
  0x82, 0x3D, 0xD2, 0x1C, 0xD1, 0x3C, 0xD8, 0xAB, 0xCB, 0x3C,
  0xB9, 0xA1, 0xB0, 0x3D, 0x56, 0x41, 0xE4, 0x3D, 0x4C, 0x5E,
  0x48, 0xBC, 0x7C, 0x74, 0x51, 0xBD, 0xD4, 0xB9, 0x4B, 0xBD,
  0x75, 0xAE, 0xAA, 0x3D, 0x13, 0xB3, 0x49, 0xBD, 0x06, 0x5D,
  0xD4, 0xBD, 0xA2, 0x3B, 0x73, 0x3D, 0xCB, 0x8E, 0xF3, 0xBC,
  0xB6, 0x1C, 0x2E, 0x3E, 0x9D, 0x79, 0x4F, 0x3C, 0x8D, 0x0E,
  0x23, 0xBC, 0xBD, 0x03, 0xBA, 0x3C, 0x8C, 0x6F, 0x77, 0x3D,
  0x65, 0xAC, 0xFB, 0x3D, 0x2B, 0xC3, 0x4C, 0x3C, 0xD8, 0x57,
  0x13, 0x3D, 0xDA, 0x7A, 0x71, 0xBD, 0x2A, 0xAB, 0xAB, 0xBD,
  0x74, 0x3A, 0xB6, 0x3C, 0xB7, 0x6A, 0x01, 0x3E, 0x26, 0xD5,
  0x58, 0xBB, 0x79, 0xD9, 0x08, 0x3D, 0x2D, 0x35, 0x68, 0x3D,
  0x7F, 0x72, 0x4C, 0x3D, 0x41, 0x85, 0xB0, 0x3D, 0x86, 0xBF,
  0x98, 0xBD, 0x55, 0xAF, 0x91, 0xBC, 0xC5, 0x39, 0x95, 0x3D,
  0x52, 0x0D, 0xEC, 0xBC, 0x33, 0x7B, 0x5F, 0x3D, 0xA5, 0xFF,
  0x94, 0x3C, 0xC5, 0xD5, 0x5C, 0x3D, 0x8C, 0x66, 0xD0, 0xBD,
  0xAA, 0xA1, 0x51, 0xBD, 0x49, 0x61, 0x0C, 0xBE, 0x72, 0xB5,
  0x17, 0x3E, 0x16, 0xD3, 0x3A, 0xBD, 0x5F, 0x1B, 0x44, 0xBD,
  0xCD, 0x5E, 0x3B, 0xBD, 0x4B, 0xD7, 0x76, 0x3E, 0x7F, 0x2D,
  0xE6, 0x3D, 0x89, 0x45, 0xED, 0x3C, 0xD3, 0xF3, 0x1D, 0xBE,
  0xA3, 0xCC, 0x05, 0x3D, 0x58, 0x65, 0x1A, 0x3E, 0xC2, 0x97,
  0xCA, 0x3C, 0xC7, 0x67, 0x3D, 0xBD, 0x55, 0xDE, 0x0C, 0x3D,
  0x45, 0x64, 0x41, 0xBD, 0x08, 0x6A, 0x3E, 0x3C, 0x9A, 0xB7,
  0x72, 0x3D, 0x77, 0x21, 0xB6, 0x3D, 0x69, 0xEC, 0xB0, 0x3D,
  0x9D, 0x2D, 0xC6, 0xBD, 0xA6, 0x2E, 0x1D, 0xBD, 0xE1, 0x13,
  0xB2, 0x3D, 0x5F, 0x3B, 0xF3, 0x3B, 0x98, 0x83, 0x7E, 0xBD,
  0xF1, 0xE4, 0xC2, 0x3C, 0x6C, 0x78, 0xC5, 0xBD, 0x6E, 0xEC,
  0x0B, 0x3D, 0x61, 0xB8, 0x52, 0x3D, 0xF3, 0x01, 0x93, 0xBC,
  0x6F, 0xA7, 0xA6, 0x3D, 0xF6, 0x96, 0x5D, 0x3B, 0xDA, 0x58,
  0x39, 0x3D, 0xF8, 0x6C, 0x3E, 0x3D, 0xD1, 0x1E, 0x1C, 0xBE,
  0xE8, 0x1B, 0xAC, 0x3C, 0xAF, 0x5F, 0x65, 0xBD, 0x7C, 0x1B,
  0xA0, 0xBC, 0x7F, 0x00, 0x06, 0xBD, 0xD1, 0xFC, 0x88, 0xBB,
  0xE3, 0x8E, 0xC3, 0x3D, 0x33, 0x2F, 0x6D, 0xBD, 0xA0, 0xC8,
  0xCF, 0xBB, 0x47, 0x5C, 0x72, 0x3D, 0x31, 0xE9, 0xA6, 0x3D,
  0xD0, 0xF3, 0x03, 0x3B, 0xA6, 0x32, 0x1E, 0xBC, 0xED, 0x68,
  0xAA, 0xBC, 0x7B, 0xC6, 0x63, 0x3C, 0x0E, 0xF5, 0x58, 0xBD,
  0x8D, 0x31, 0x28, 0xBC, 0x9E, 0x8D, 0x00, 0x3D, 0xDF, 0xA2,
  0xAD, 0xBD, 0xD2, 0xC1, 0x59, 0xBD, 0xB3, 0xE0, 0xC1, 0xBC,
  0x8A, 0x3B, 0xDD, 0x3A, 0x86, 0x08, 0x8D, 0xBA, 0xC5, 0x1E,
  0x5E, 0xBD, 0x42, 0xDB, 0xF5, 0xBB, 0x57, 0xC0, 0xFD, 0xBC,
  0x92, 0xD0, 0xE3, 0x3D, 0x26, 0x7F, 0xBB, 0xBC, 0x4E, 0xCD,
  0x1E, 0x3D, 0x8B, 0x69, 0xF1, 0xBD, 0x11, 0xE0, 0x1E, 0xBC,
  0x4A, 0xBF, 0xD5, 0xBD, 0xDF, 0x7F, 0x2F, 0x3C, 0xD5, 0x6E,
  0xB7, 0xBB, 0x49, 0x0F, 0x01, 0xBE, 0xA2, 0xA8, 0x09, 0x3D,
  0x83, 0x50, 0x92, 0x3D, 0xD4, 0x9D, 0x21, 0xBD, 0x02, 0x2A,
  0xCE, 0x3D, 0xC6, 0x86, 0xC4, 0xBB, 0x15, 0x5E, 0x22, 0xBD,
  0x37, 0x9D, 0xC9, 0xBC, 0x09, 0x51, 0x73, 0x3E, 0x90, 0x46,
  0xE9, 0x3C, 0xF5, 0xED, 0xCE, 0xBB, 0x56, 0x3D, 0xBB, 0x3D,
  0xBD, 0x3D, 0x6E, 0x3D, 0xB6, 0xC9, 0x8A, 0xBD, 0xDC, 0x1E,
  0xA7, 0x3C, 0xCA, 0xBB, 0xB5, 0x3D, 0x78, 0x5A, 0x6C, 0x3A,
  0x49, 0xAE, 0x43, 0xBD, 0x93, 0x5E, 0x50, 0x3D, 0x50, 0xBC,
  0x03, 0xBD, 0x2F, 0x63, 0x6A, 0x3D, 0x2A, 0x74, 0x01, 0xBE,
  0x50, 0x59, 0x81, 0xBD, 0x44, 0xA3, 0xE4, 0x3C, 0x0B, 0x0F,
  0x24, 0x3D, 0xD6, 0x00, 0x7E, 0x3C, 0x5C, 0xBC, 0x30, 0xBD,
  0xC3, 0x9A, 0x1B, 0x3D, 0x1C, 0xB1, 0x36, 0xBB, 0x8D, 0xF6,
  0x84, 0xBD, 0x41, 0x97, 0x1A, 0x3D, 0x26, 0xBE, 0x8C, 0x3D,
  0xCA, 0x58, 0x07, 0x3C, 0xA4, 0xA1, 0x52, 0xBC, 0xBF, 0x1F,
  0xB6, 0xBB, 0x4D, 0xDF, 0x6C, 0x3B, 0x48, 0x6E, 0x90, 0xBA,
  0xC7, 0x7C, 0x70, 0xBC, 0x98, 0x60, 0x91, 0x3D, 0xFB, 0xA4,
  0xF9, 0x3D, 0xEE, 0xBE, 0xD7, 0x3D, 0xDA, 0x16, 0x75, 0x3D,
  0xBE, 0x3C, 0xF2, 0xBD, 0xFF, 0x0E, 0x44, 0x3D, 0x47, 0xEA,
  0x7D, 0x3D, 0xBD, 0xCC, 0x04, 0xBB, 0x21, 0xEB, 0x1F, 0xBD,
  0x31, 0x10, 0x0A, 0x3C, 0x7E, 0xBE, 0x4F, 0xBC, 0x6F, 0x69,
  0x33, 0xBD, 0xF0, 0x13, 0x1B, 0x3D, 0x82, 0x06, 0x70, 0x3D,
  0x65, 0x27, 0xEE, 0xBC, 0x0E, 0x6A, 0x8D, 0x3B, 0x48, 0xF7,
  0xC3, 0xBD, 0xD3, 0xA3, 0x90, 0x3C, 0x3E, 0x91, 0x10, 0x3E,
  0x1C, 0xD3, 0x99, 0x3D, 0xD4, 0x55, 0x3A, 0xBD, 0x3B, 0xF4,
  0x36, 0x3D, 0x9F, 0xAE, 0x54, 0x3D, 0xF7, 0x82, 0x10, 0xBD,
  0x3C, 0xBD, 0xBE, 0xBD, 0x3E, 0xAD, 0x7C, 0xBC, 0xAC, 0x19,
  0x88, 0xBD, 0x19, 0x96, 0xDC, 0x3C, 0x7E, 0x28, 0xB7, 0xBD,
  0xB7, 0xD1, 0xF9, 0x3C, 0xE5, 0x10, 0xD5, 0x3D, 0xFF, 0x94,
  0xA9, 0xBD, 0x7F, 0xDC, 0xDB, 0xBC, 0x14, 0x04, 0xB9, 0xBD,
  0x2C, 0xCB, 0x85, 0xBE, 0xA9, 0x2F, 0x20, 0xBE, 0x9E, 0x85,
  0xF6, 0xBD, 0x58, 0x55, 0x28, 0xBE, 0xA1, 0x45, 0x4E, 0xBE,
  0xA7, 0xD4, 0xE7, 0x3D, 0xC9, 0x9F, 0x55, 0xBE, 0x3C, 0x18,
  0x18, 0xBD, 0x4D, 0xA1, 0x39, 0x3D, 0xEE, 0x5D, 0xC3, 0xBE,
  0x85, 0x3C, 0x34, 0xBE, 0x54, 0xD1, 0xA4, 0xBC, 0xCC, 0xF7,
  0x02, 0x3E, 0x7C, 0x83, 0xC4, 0x3D, 0x09, 0x6D, 0x43, 0xBD,
  0x14, 0xA8, 0x53, 0xBE, 0xCA, 0xAC, 0xFB, 0xBD, 0x99, 0x3B,
  0x21, 0xBE, 0xCD, 0x17, 0x8D, 0xBE, 0xA6, 0x5D, 0x87, 0xBE,
  0x78, 0xED, 0x4F, 0xBE, 0x6C, 0x62, 0x9F, 0x3D, 0x02, 0x8D,
  0xFB, 0x3D, 0xF3, 0x81, 0x81, 0x3D, 0x4B, 0x6B, 0x9F, 0x3D,
  0x53, 0xC9, 0xCA, 0x3B, 0xC8, 0x87, 0xD4, 0xBD, 0x11, 0xAC,
  0xA0, 0xBD, 0x32, 0xF0, 0x95, 0xBC, 0x6D, 0xDE, 0x44, 0x3D,
  0x22, 0x5C, 0xED, 0xBD, 0x90, 0x1E, 0x4E, 0x3B, 0xE4, 0x41,
  0x4B, 0xBD, 0xAE, 0x53, 0x8E, 0xBD, 0x65, 0x31, 0x05, 0xBE,
  0xC2, 0x13, 0x3C, 0xBE, 0x56, 0x0E, 0xFE, 0xBD, 0x44, 0x56,
  0x31, 0x3E, 0xF8, 0x58, 0xA1, 0xBD, 0xE6, 0x62, 0x80, 0x3D,
  0x44, 0x6F, 0xE3, 0x3D, 0xA5, 0x44, 0x88, 0x3B, 0xF8, 0x0D,
  0xC0, 0x3C, 0x83, 0x51, 0x52, 0xBC, 0xA5, 0xFC, 0xEF, 0x3C,
  0x93, 0x94, 0x92, 0xBD, 0xEC, 0x80, 0x50, 0xBD, 0x9B, 0x64,
  0x97, 0x3C, 0xB4, 0xF5, 0x55, 0x3C, 0xDD, 0x1B, 0xB6, 0xBD,
  0x92, 0x90, 0xA7, 0xBD, 0xA0, 0x6D, 0x6C, 0xBE, 0x90, 0x92,
  0x26, 0xBE, 0xFF, 0xFF, 0x17, 0x3E, 0x84, 0x99, 0x57, 0xBD,
  0x32, 0x57, 0x08, 0x3E, 0xE4, 0x49, 0x26, 0x3E, 0x52, 0x2B,
  0x76, 0xBD, 0x61, 0x1F, 0xA1, 0xBC, 0x91, 0x65, 0x34, 0xBD,
  0xFB, 0x0E, 0x30, 0x3C, 0x97, 0x8D, 0x8D, 0xBD, 0xF9, 0x6D,
  0xAD, 0xBD, 0x9A, 0xD8, 0xC1, 0x3D, 0x77, 0x39, 0x8A, 0xBE,
  0x70, 0x03, 0x68, 0xBD, 0xCC, 0x95, 0xB7, 0xBD, 0x1D, 0x18,
  0x64, 0xBD, 0xC8, 0xBF, 0xC3, 0xBD, 0x2F, 0x79, 0x9C, 0x3D,
  0x52, 0x38, 0xDF, 0xBB, 0x25, 0x57, 0x2C, 0xBD, 0x86, 0x18,
  0x2B, 0x3D, 0xED, 0x85, 0x26, 0xBE, 0xAE, 0x73, 0xDF, 0xBD,
  0x11, 0x85, 0x2E, 0x3D, 0x15, 0x73, 0xAE, 0x3D, 0x13, 0xE5,
  0xA4, 0x3C, 0xB3, 0x6A, 0x04, 0xBC, 0xB2, 0xAF, 0x0E, 0xBE,
  0xEF, 0xFC, 0xA7, 0xBD, 0x6D, 0x26, 0xC7, 0x3D, 0x44, 0x83,
  0x8C, 0xBD, 0xB9, 0xB9, 0x52, 0xBD, 0xC1, 0xD7, 0x38, 0xBB,
  0xBD, 0xED, 0x93, 0x3D, 0x35, 0x36, 0x98, 0x3E, 0x1F, 0xD8,
  0x5B, 0x3D, 0xA2, 0x3A, 0x3B, 0x3D, 0xF6, 0x56, 0x9D, 0x3B,
  0x95, 0x7C, 0x4F, 0x3E, 0x98, 0xD7, 0x67, 0xBD, 0x2F, 0xC1,
  0x11, 0xBE, 0xD6, 0x20, 0x3A, 0xBC, 0xEC, 0x48, 0x73, 0xBD,
  0xC6, 0xBD, 0xEB, 0x3C, 0xD4, 0x79, 0x20, 0x3D, 0x95, 0xF8,
  0x32, 0x3D, 0x16, 0x57, 0xE8, 0x3D, 0x9E, 0xC4, 0xAA, 0xBD,
  0xB2, 0xD4, 0x93, 0xBD, 0x5D, 0xDA, 0x82, 0xBB, 0xFD, 0x42,
  0xC8, 0x3D, 0xE1, 0xB6, 0xEF, 0x3B, 0xBF, 0xD9, 0xD9, 0x3C,
  0x22, 0xD9, 0xDE, 0x3D, 0x52, 0x17, 0x50, 0x3D, 0x44, 0xE7,
  0x94, 0xBC, 0x62, 0xDE, 0x62, 0xBE, 0x44, 0x55, 0xAA, 0x3C,
  0xE6, 0x63, 0x9B, 0xBC, 0x0B, 0x44, 0xAB, 0xBC, 0x0E, 0x79,
  0xD2, 0x3D, 0x79, 0xC7, 0xCF, 0x3C, 0x06, 0xB9, 0xCC, 0xBC,
  0xCB, 0x55, 0xB5, 0xBD, 0x6A, 0xE6, 0x82, 0xBD, 0x1B, 0x83,
  0x94, 0xBD, 0x19, 0x2C, 0x54, 0x3E, 0xA7, 0x5B, 0xA0, 0xBD,
  0x6A, 0x71, 0x32, 0x3C, 0x09, 0x3B, 0x01, 0x3D, 0xF9, 0xA5,
  0xF0, 0x3C, 0x93, 0x33, 0xBC, 0xBD, 0xFC, 0x4D, 0xED, 0xBC,
  0x47, 0x87, 0x02, 0xBD, 0xB4, 0xFC, 0xD6, 0xBC, 0x91, 0x87,
  0xE8, 0x3D, 0x9A, 0x0A, 0x91, 0xBE, 0x9D, 0x03, 0xE0, 0xBD,
  0xA1, 0x5E, 0x33, 0xBB, 0x15, 0xBE, 0x9C, 0x3B, 0x27, 0xAC,
  0xB0, 0x3B, 0x5A, 0xDF, 0x54, 0x3D, 0x1A, 0x8F, 0x58, 0xBD,
  0x59, 0x0E, 0x1B, 0xBD, 0x7C, 0x1C, 0x0C, 0xBD, 0x4D, 0x51,
  0xB1, 0xBD, 0xA2, 0x40, 0x58, 0x3B, 0x78, 0x73, 0x9E, 0xBD,
  0x89, 0xCA, 0x0D, 0x3D, 0x4D, 0xD8, 0x01, 0x3E, 0x3C, 0x81,
  0x17, 0x3D, 0x09, 0xCA, 0xC5, 0xBD, 0x7F, 0x42, 0x72, 0xBC,
  0x6C, 0x1F, 0xA9, 0xBC, 0x26, 0x19, 0x89, 0xBD, 0xBC, 0xD2,
  0x76, 0xBC, 0x77, 0x8F, 0x0B, 0xBE, 0x12, 0x63, 0xDF, 0x3C,
  0xFE, 0xFC, 0xF3, 0x3D, 0x4B, 0xFB, 0x6D, 0x3C, 0x89, 0x06,
  0x9D, 0x3C, 0x06, 0x46, 0x75, 0x3C, 0x36, 0xBB, 0x48, 0x3D,
  0xDC, 0x6D, 0xFE, 0xBC, 0x46, 0x2B, 0x05, 0x3D, 0xB2, 0x0A,
  0x66, 0x3D, 0x1F, 0x23, 0xEE, 0x3C, 0x4E, 0x41, 0x38, 0x3D,
  0x12, 0x6B, 0x70, 0xBD, 0xB3, 0xFE, 0xB6, 0xBC, 0x8E, 0x65,
  0x84, 0x3B, 0xCA, 0x7D, 0x1A, 0xBD, 0xBA, 0x3C, 0x75, 0xBB,
  0x2C, 0x65, 0x75, 0xBD, 0xE6, 0xC7, 0x8D, 0xBD, 0x89, 0xD7,
  0xA9, 0xBD, 0x8A, 0xB8, 0x99, 0xBC, 0x83, 0xD6, 0x3E, 0xBE,
  0xCC, 0xFE, 0xDF, 0xBD, 0xB5, 0xCE, 0x87, 0x3D, 0xD1, 0xD0,
  0x93, 0xBD, 0x41, 0xB3, 0x91, 0x3D, 0xAD, 0x87, 0xB0, 0xBD,
  0xB5, 0xF4, 0x98, 0xBD, 0x85, 0x22, 0x2D, 0x3D, 0x68, 0x83,
  0x0D, 0xBC, 0x0A, 0x40, 0xE5, 0x3C, 0xB9, 0x24, 0xE9, 0xBD,
  0xE0, 0x9E, 0x07, 0x3E, 0x69, 0x49, 0xDB, 0xBC, 0xA2, 0xB5,
  0xAB, 0x3D, 0x76, 0xFA, 0x4A, 0x3D, 0xB7, 0xE7, 0x92, 0xBC,
  0xA0, 0x96, 0xC2, 0xBD, 0xCF, 0x94, 0x0A, 0x3D, 0x4C, 0x59,
  0x3D, 0x3D, 0x5C, 0x92, 0x6D, 0x3D, 0x95, 0x6C, 0xC9, 0x3C,
  0x05, 0x2B, 0xC5, 0xBD, 0xF2, 0x9D, 0x5F, 0x3C, 0x5C, 0x8E,
  0xCC, 0xBD, 0x5D, 0xF5, 0x8D, 0xBD, 0x2C, 0x84, 0x83, 0xBE,
  0x52, 0xF5, 0xD5, 0x3A, 0x37, 0x15, 0xCA, 0x3C, 0x77, 0xCA,
  0x44, 0x3C, 0x74, 0xC4, 0xE3, 0x3D, 0x30, 0x98, 0x21, 0xBE,
  0x61, 0x29, 0x8C, 0x3C, 0xF0, 0x54, 0x81, 0xBD, 0x8F, 0x6C,
  0xCE, 0xBD, 0x8F, 0xE6, 0xB1, 0x3D, 0xC6, 0x9E, 0x43, 0xBE,
  0x2B, 0x0C, 0x2D, 0xBC, 0xC9, 0x2B, 0x06, 0x3E, 0xAD, 0xB6,
  0x60, 0xBD, 0x31, 0x7D, 0xDB, 0x3B, 0x43, 0xF0, 0xC6, 0xBC,
  0x05, 0xA7, 0xEE, 0xBB, 0xE6, 0x1C, 0xBE, 0xBB, 0x21, 0xC4,
  0xF7, 0xBD, 0x11, 0xA1, 0x16, 0x3C, 0xC6, 0x83, 0xBA, 0xBC,
  0x31, 0x58, 0x7F, 0xBD, 0x80, 0xE2, 0x05, 0xBD, 0x69, 0x07,
  0xFA, 0x3D, 0xF1, 0x37, 0xAD, 0xBD, 0x99, 0xEE, 0x91, 0xBB,
  0xA1, 0x7D, 0x18, 0xBE, 0xA9, 0x61, 0x8A, 0x3D, 0xD3, 0xD7,
  0x04, 0x3E, 0xED, 0x26, 0x0E, 0xBA, 0x3E, 0xDB, 0xA6, 0x3D,
  0x99, 0x17, 0x68, 0xBD, 0x64, 0x99, 0x98, 0x3D, 0x85, 0x79,
  0x84, 0xBC, 0xAC, 0x1B, 0xD4, 0xBB, 0xE4, 0x32, 0x75, 0xBD,
  0x9B, 0xFB, 0x02, 0x3E, 0x12, 0x5E, 0x45, 0xBD, 0x4C, 0xC2,
  0x6E, 0x3B, 0x5F, 0x98, 0xD3, 0x3D, 0xBB, 0x26, 0x1D, 0xBD,
  0x32, 0x35, 0xFC, 0x3D, 0x46, 0x17, 0x95, 0xBD, 0xEE, 0x8E,
  0x33, 0x3D, 0xB5, 0xE8, 0x75, 0x3D, 0x11, 0x96, 0x6D, 0xBD,
  0x0D, 0xF0, 0xB2, 0x3D, 0x26, 0xE6, 0xE0, 0xBD, 0xEE, 0x1D,
  0xAE, 0x3D, 0x36, 0x4F, 0xE0, 0xBD, 0x23, 0xC7, 0x9A, 0xBC,
